{
  "version": "1.0",
  "truncation": null,
  "padding": null,
  "added_tokens": [
    {
      "id": 0,
      "content": "<unk>",
      "single_word": false,
      "lstrip": false,
      "rstrip": false,
      "normalized": false,
      "special": true
    },
    {
      "id": 1,
      "content": "<pad>",
      "single_word": false,
      "lstrip": false,
      "rstrip": false,
      "normalized": false,
      "special": true
    },
    {
      "id": 2,
      "content": "<s>",
      "single_word": false,
      "lstrip": false,
      "rstrip": false,
      "normalized": false,
      "special": true
    },
    {
      "id": 3,
      "content": "</s>",
      "single_word": false,
      "lstrip": false,
      "rstrip": false,
      "normalized": false,
      "special": true
    }
  ],
  "normalizer": null,
  "pre_tokenizer": {
    "type": "ByteLevel",
    "add_prefix_space": true,
    "trim_offsets": true,
    "use_regex": true
  },
  "post_processor": null,
  "decoder": {
    "type": "ByteLevel",
    "add_prefix_space": true,
    "trim_offsets": true,
    "use_regex": true
  },
  "model": {
    "type": "BPE",
    "dropout": null,
    "unk_token": "<unk>",
    "continuing_subword_prefix": null,
    "end_of_word_suffix": null,
    "fuse_unk": false,
    "byte_fallback": true,
    "ignore_merges": false,
    "vocab": {
      "<unk>": 0,
      "<pad>": 1,
      "<s>": 2,
      "</s>": 3,
      "!": 4,
      "\"": 5,
      "#": 6,
      "$": 7,
      "%": 8,
      "&": 9,
      "'": 10,
      "(": 11,
      ")": 12,
      "*": 13,
      "+": 14,
      ",": 15,
      "-": 16,
      ".": 17,
      "/": 18,
      "0": 19,
      "1": 20,
      "2": 21,
      "3": 22,
      "4": 23,
      "5": 24,
      "6": 25,
      "7": 26,
      "8": 27,
      "9": 28,
      ":": 29,
      ";": 30,
      "<": 31,
      "=": 32,
      ">": 33,
      "?": 34,
      "@": 35,
      "A": 36,
      "B": 37,
      "C": 38,
      "D": 39,
      "E": 40,
      "F": 41,
      "G": 42,
      "H": 43,
      "I": 44,
      "J": 45,
      "K": 46,
      "L": 47,
      "M": 48,
      "N": 49,
      "O": 50,
      "P": 51,
      "Q": 52,
      "R": 53,
      "S": 54,
      "T": 55,
      "U": 56,
      "V": 57,
      "W": 58,
      "X": 59,
      "Y": 60,
      "Z": 61,
      "[": 62,
      "\\": 63,
      "]": 64,
      "^": 65,
      "_": 66,
      "`": 67,
      "a": 68,
      "b": 69,
      "c": 70,
      "d": 71,
      "e": 72,
      "f": 73,
      "g": 74,
      "h": 75,
      "i": 76,
      "j": 77,
      "k": 78,
      "l": 79,
      "m": 80,
      "n": 81,
      "o": 82,
      "p": 83,
      "q": 84,
      "r": 85,
      "s": 86,
      "t": 87,
      "u": 88,
      "v": 89,
      "w": 90,
      "x": 91,
      "y": 92,
      "z": 93,
      "|": 94,
      "}": 95,
      "~": 96,
      "¡": 97,
      "¢": 98,
      "£": 99,
      "¤": 100,
      "¥": 101,
      "¦": 102,
      "§": 103,
      "¨": 104,
      "©": 105,
      "ª": 106,
      "«": 107,
      "¬": 108,
      "®": 109,
      "¯": 110,
      "°": 111,
      "±": 112,
      "²": 113,
      "³": 114,
      "´": 115,
      "µ": 116,
      "¶": 117,
      "·": 118,
      "¸": 119,
      "¹": 120,
      "º": 121,
      "»": 122,
      "¼": 123,
      "½": 124,
      "¾": 125,
      "¿": 126,
      "Â": 127,
      "Ã": 128,
      "Ä": 129,
      "Å": 130,
      "Æ": 131,
      "Ç": 132,
      "È": 133,
      "É": 134,
      "Ê": 135,
      "Ë": 136,
      "Ì": 137,
      "Í": 138,
      "Î": 139,
      "Ï": 140,
      "Ð": 141,
      "Ñ": 142,
      "Ò": 143,
      "Ó": 144,
      "Ô": 145,
      "Õ": 146,
      "Ö": 147,
      "×": 148,
      "Ø": 149,
      "Ù": 150,
      "Ú": 151,
      "Û": 152,
      "Ü": 153,
      "à": 154,
      "á": 155,
      "â": 156,
      "ã": 157,
      "ä": 158,
      "å": 159,
      "æ": 160,
      "ç": 161,
      "è": 162,
      "é": 163,
      "ê": 164,
      "ë": 165,
      "ì": 166,
      "í": 167,
      "ï": 168,
      "ð": 169,
      "Ġ": 170,
      "Ģ": 171,
      "ģ": 172,
      "Ĥ": 173,
      "ĥ": 174,
      "Ħ": 175,
      "ħ": 176,
      "Ĩ": 177,
      "ĩ": 178,
      "Ī": 179,
      "ī": 180,
      "Ĭ": 181,
      "ĭ": 182,
      "Į": 183,
      "į": 184,
      "İ": 185,
      "ı": 186,
      "Ĳ": 187,
      "ĳ": 188,
      "Ĵ": 189,
      "ĵ": 190,
      "Ķ": 191,
      "ķ": 192,
      "ĸ": 193,
      "Ĺ": 194,
      "ĺ": 195,
      "Ļ": 196,
      "ļ": 197,
      "Ľ": 198,
      "ľ": 199,
      "Ŀ": 200,
      "ŀ": 201,
      "Ł": 202,
      "ł": 203,
      "Ń": 204,
      "Ġt": 205,
      "Ġa": 206,
      "he": 207,
      "in": 208,
      "re": 209,
      "on": 210,
      "Ġthe": 211,
      "er": 212,
      "Ġs": 213,
      "Ġw": 214,
      "Ġo": 215,
      "at": 216,
      "nd": 217,
      "Ġc": 218,
      "it": 219,
      "or": 220,
      "is": 221,
      "en": 222,
      "es": 223,
      "Ġf": 224,
      "Ġb": 225,
      "ou": 226,
      "ing": 227,
      "Ġp": 228,
      "ed": 229,
      "an": 230,
      "al": 231,
      "Ġto": 232,
      "ar": 233,
      "Ġm": 234,
      "Ġof": 235,
      "Ġand": 236,
      "Ġin": 237,
      "Ġd": 238,
      "Ġh": 239,
      "ic": 240,
      "as": 241,
      "le": 242,
      "Ġth": 243,
      "om": 244,
      "ion": 245,
      "ll": 246,
      "ĠT": 247,
      "ent": 248,
      "Ġl": 249,
      "ĠI": 250,
      "Ġn": 251,
      "st": 252,
      "ve": 253,
      "Ġre": 254,
      "Ġe": 255,
      "ro": 256,
      "Ġg": 257,
      "ĠS": 258,
      "âĢ": 259,
      "ly": 260,
      "Ġbe": 261,
      "ĠA": 262,
      "ct": 263,
      "ut": 264,
      "ot": 265,
      "id": 266,
      "Ġy": 267,
      "ĠC": 268,
      "ay": 269,
      "et": 270,
      "Ġon": 271,
      "Ġfor": 272,
      "Ġis": 273,
      "ow": 274,
      "am": 275,
      "ad": 276,
      "se": 277,
      "ur": 278,
      "ig": 279,
      "im": 280,
      "ac": 281,
      "Ġthat": 282,
      "ver": 283,
      "ĠM": 284,
      "Ġyou": 285,
      "Ġu": 286,
      "il": 287,
      "ol": 288,
      "Ġst": 289,
      "ation": 290,
      "ith": 291,
      "ĠB": 292,
      "ir": 293,
      "Ġhe": 294,
      "ĠP": 295,
      "Ġit": 296,
      "Ġwith": 297,
      "ce": 298,
      "ĠThe": 299,
      "ch": 300,
      "ĠW": 301,
      "Ġwe": 302,
      "Ġwh": 303,
      "ter": 304,
      "Ġan": 305,
      "ill": 306,
      "Ġas": 307,
      "ĠH": 308,
      "ĠD": 309,
      "ĠF": 310,
      "ers": 311,
      "ke": 312,
      "ra": 313,
      "âĢĻ": 314,
      "ld": 315,
      "Ġha": 316,
      "ĠR": 317,
      "if": 318,
      "Ġ1": 319,
      "Ġpro": 320,
      "Ġat": 321,
      "her": 322,
      "ge": 323,
      "Ġare": 324,
      "Ġcon": 325,
      "oo": 326,
      "Ġse": 327,
      "ate": 328,
      "Ġor": 329,
      "Ġ2": 330,
      "ri": 331,
      "Ġwas": 332,
      "pp": 333,
      "ore": 334,
      "Ġ(": 335,
      "ul": 336,
      "Ġcom": 337,
      "ĠL": 338,
      "ment": 339,
      "igh": 340,
      "Ġde": 341,
      "ĠN": 342,
      "est": 343,
      "th": 344,
      "us": 345,
      "ess": 346,
      "rom": 347,
      "ist": 348,
      "ew": 349,
      "ĠG": 350,
      "ab": 351,
      "un": 352,
      "'s": 353,
      "op": 354,
      "Ġr": 355,
      "Ġ-": 356,
      "ĠE": 357,
      "ĠO": 358,
      "res": 359,
      "Ġex": 360,
      "em": 361,
      "Ġhave": 362,
      "ity": 363,
      "ant": 364,
      "Ġsu": 365,
      "Ġv": 366,
      "pe": 367,
      "Ġnot": 368,
      "qu": 369,
      "Ġthis": 370,
      "ive": 371,
      "Ġfrom": 372,
      "Ġby": 373,
      "ort": 374,
      "ĠâĢ": 375,
      "art": 376,
      "Ġsh": 377,
      "ain": 378,
      "nt": 379,
      "el": 380,
      "ust": 381,
      "oc": 382,
      "os": 383,
      "ight": 384,
      "um": 385,
      "and": 386,
      "ies": 387,
      "ĠJ": 388,
      "all": 389,
      "Ġch": 390,
      "Ġal": 391,
      "00": 392,
      "ould": 393,
      "ard": 394,
      "out": 395,
      "Ġle": 396,
      "ear": 397,
      "ud": 398,
      "Ġwill": 399,
      "ome": 400,
      "our": 401,
      "Ġab": 402,
      "Ġ\"": 403,
      "gh": 404,
      "red": 405,
      "ost": 406,
      "ast": 407,
      "Ġcan": 408,
      "Ġpl": 409,
      "ack": 410,
      "iv": 411,
      "ally": 412,
      "Ġj": 413,
      "Ġyour": 414,
      "te": 415,
      "Ġwor": 416,
      "Ġdo": 417,
      "Ġall": 418,
      "rou": 419,
      "od": 420,
      "ak": 421,
      "ag": 422,
      "Ġbut": 423,
      "Ġhas": 424,
      "Ġk": 425,
      "ide": 426,
      "ine": 427,
      "ĠU": 428,
      "ie": 429,
      "Ġwhe": 430,
      "ĠTh": 431,
      "ice": 432,
      "Ġne": 433,
      "Ġme": 434,
      "ff": 435,
      "ĠIn": 436,
      "ure": 437,
      "pt": 438,
      "Ġhis": 439,
      "Ġout": 440,
      "Ġsa": 441,
      "ther": 442,
      "ich": 443,
      "per": 444,
      "Ġup": 445,
      "ction": 446,
      "ial": 447,
      "Ġthey": 448,
      "age": 449,
      "Ġad": 450,
      "ame": 451,
      "ook": 452,
      "one": 453,
      "Ġus": 454,
      "pl": 455,
      "ry": 456,
      "og": 457,
      "Ġmore": 458,
      "âĢĿ": 459,
      "ong": 460,
      "ĠâĢľ": 461,
      "Ġtheir": 462,
      "ind": 463,
      "Ġso": 464,
      "ake": 465,
      "Ġone": 466,
      "are": 467,
      "Ġmy": 468,
      "Ġwho": 469,
      "Ġte": 470,
      "ood": 471,
      "ated": 472,
      "very": 473,
      "ber": 474,
      "ip": 475,
      "ĠK": 476,
      "ans": 477,
      "ime": 478,
      "ike": 479,
      "Ġabout": 480,
      "ous": 481,
      "ite": 482,
      "ĠSt": 483,
      "Ġcomp": 484,
      "able": 485,
      "Ġen": 486,
      "Ġcl": 487,
      "Ġgo": 488,
      "cc": 489,
      "orm": 490,
      "iz": 491,
      "ĠY": 492,
      "Ġcont": 493,
      "Ġoff": 494,
      "ect": 495,
      "cl": 496,
      "ace": 497,
      "Ġim": 498,
      "ue": 499,
      "ions": 500,
      "ub": 501,
      "so": 502,
      "ary": 503,
      "ks": 504,
      "Ġman": 505,
      "ia": 506,
      "ire": 507,
      "ĠV": 508,
      "Ġyear": 509,
      "01": 510,
      "ase": 511,
      "ree": 512,
      "Ġwhich": 513,
      "ail": 514,
      "ĠCh": 515,
      "Ġtr": 516,
      "Ġper": 517,
      "ance": 518,
      "ays": 519,
      "au": 520,
      "Ġhad": 521,
      "ven": 522,
      "ap": 523,
      "ib": 524,
      "act": 525,
      "Ġother": 526,
      "Ġour": 527,
      "Ġres": 528,
      "du": 529,
      "Ġsaid": 530,
      "ĠIt": 531,
      "ass": 532,
      "ach": 533,
      "..": 534,
      "Ġint": 535,
      "ign": 536,
      "ep": 537,
      "Ġag": 538,
      "Ġwere": 539,
      "ick": 540,
      "Ġany": 541,
      "Ġapp": 542,
      "ations": 543,
      "Ġlike": 544,
      "Ġ3": 545,
      "ond": 546,
      "reat": 547,
      "Ġqu": 548,
      "Ġwould": 549,
      "ord": 550,
      "Ġsome": 551,
      "Ġbeen": 552,
      "ount": 553,
      "own": 554,
      "Ġun": 555,
      "'t": 556,
      "Ġdis": 557,
      "Ġnew": 558,
      "ile": 559,
      "ult": 560,
      "ical": 561,
      "ĠHe": 562,
      "Ġtime": 563,
      "ĠWe": 564,
      "Ġget": 565,
      "form": 566,
      "ress": 567,
      "Ġthere": 568,
      "Ġkn": 569,
      "Ġsp": 570,
      "ough": 571,
      "ose": 572,
      "ove": 573,
      "Ġher": 574,
      "ru": 575,
      "Ġthem": 576,
      "Ġover": 577,
      "ings": 578,
      "Ġwhen": 579,
      "Ġpart": 580,
      "Ġalso": 581,
      "Ġar": 582,
      "Ġsc": 583,
      "ence": 584,
      "mer": 585,
      "av": 586,
      "erv": 587,
      "Ġpe": 588,
      "Ġrec": 589,
      "Ġjust": 590,
      "Ġwhat": 591,
      "int": 592,
      "Ġthan": 593,
      "fe": 594,
      "ark": 595,
      "irst": 596,
      "ound": 597,
      "Ġwork": 598,
      "vel": 599,
      "Ġif": 600,
      "Ġ201": 601,
      "ors": 602,
      "ition": 603,
      "ink": 604,
      "ents": 605,
      "ens": 606,
      "ren": 607,
      "Ġtw": 608,
      "Ġbec": 609,
      "Ġfe": 610,
      "ob": 611,
      "wn": 612,
      "Ġpre": 613,
      "port": 614,
      "Ġro": 615,
      "Ġspe": 616,
      "fter": 617,
      "ish": 618,
      "ory": 619,
      "Ġinto": 620,
      "ild": 621,
      "itt": 622,
      "ĠThis": 623,
      "ople": 624,
      "Ġfirst": 625,
      "vers": 626,
      "lic": 627,
      "Ġits": 628,
      "ne": 629,
      "ade": 630,
      "ck": 631,
      "ov": 632,
      "nder": 633,
      "oy": 634,
      "day": 635,
      "ning": 636,
      "Ġshe": 637,
      "ons": 638,
      "Ġam": 639,
      "old": 640,
      "Ġacc": 641,
      "hed": 642,
      "Ġno": 643,
      "Ġ19": 644,
      "rough": 645,
      "ĠRe": 646,
      "Ġ200": 647,
      "Ġpeople": 648,
      "Ġco": 649,
      "clud": 650,
      "ang": 651,
      "ater": 652,
      "amp": 653,
      "Ġbl": 654,
      "Ġhow": 655,
      "Ġ4": 656,
      "Ġtwo": 657,
      "ause": 658,
      "Ġonly": 659,
      "ates": 660,
      "Ġmay": 661,
      "Ġpo": 662,
      "ft": 663,
      "ian": 664,
      "we": 665,
      "Ġcomm": 666,
      "Ġneed": 667,
      "Ġplay": 668,
      "ious": 669,
      "ric": 670,
      "Ġknow": 671,
      "Ġback": 672,
      "Ġ5": 673,
      "ull": 674,
      "Ġdes": 675,
      "anc": 676,
      "ĠWh": 677,
      "ual": 678,
      "ments": 679,
      "end": 680,
      "Ġadd": 681,
      "hing": 682,
      "Ġlook": 683,
      "Ġinclud": 684,
      "gr": 685,
      "iss": 686,
      "tern": 687,
      "Ġbet": 688,
      "iew": 689,
      "Ġsee": 690,
      "Ġmost": 691,
      "Ġhim": 692,
      "Ġafter": 693,
      "Ġmake": 694,
      "Ġcould": 695,
      "ĠAs": 696,
      "Ġfl": 697,
      "ph": 698,
      "ily": 699,
      "round": 700,
      "Ġ|": 701,
      "Ġwant": 702,
      ".\"": 703,
      "Ġevery": 704,
      "Ġthrough": 705,
      "ĠAnd": 706,
      "com": 707,
      "aw": 708,
      "rent": 709,
      "les": 710,
      "Ġem": 711,
      "Ġprov": 712,
      "ise": 713,
      "Ġunder": 714,
      "Ġact": 715,
      "ĠUn": 716,
      "Ġdid": 717,
      "oll": 718,
      "Ġind": 719,
      "sel": 720,
      "xt": 721,
      "Ġthese": 722,
      "urn": 723,
      "ĠSe": 724,
      "ĠYou": 725,
      "Ġcons": 726,
      "Ġyears": 727,
      "ational": 728,
      "Ġwell": 729,
      "fore": 730,
      "Ġ$": 731,
      "Ġuse": 732,
      "ating": 733,
      "ont": 734,
      "Ġhel": 735,
      "Ġph": 736,
      "Ġgood": 737,
      "ool": 738,
      "uch": 739,
      "row": 740,
      "Ġnow": 741,
      "Ġvery": 742,
      "ities": 743,
      "ĠIf": 744,
      "Ġbu": 745,
      "ock": 746,
      "Ġprodu": 747,
      "Ġsec": 748,
      "Ġeven": 749,
      "Ġhelp": 750,
      "ĠAn": 751,
      "ts": 752,
      "ĠCom": 753,
      "Ġthen": 754,
      "Ġway": 755,
      "ting": 756,
      "lect": 757,
      "enc": 758,
      "ident": 759,
      "Ġdon": 760,
      "Ġbecause": 761,
      "pect": 762,
      "Ġreg": 763,
      "hen": 764,
      "Ġpr": 765,
      "Ġserv": 766,
      "ife": 767,
      "als": 768,
      "Ġsupp": 769,
      "ject": 770,
      "Ġstud": 771,
      "Ġthink": 772,
      "rit": 773,
      "Ġmany": 774,
      "Ġinv": 775,
      "ĠNew": 776,
      "ĠBut": 777,
      "Ġev": 778,
      "Ġrem": 779,
      "Ġgu": 780,
      "Ġwhere": 781,
      "Ġshould": 782,
      "oth": 783,
      "Ġagain": 784,
      "Ġright": 785,
      "Ġsy": 786,
      "Ġrel": 787,
      "ason": 788,
      "ĠDe": 789,
      "Ġcol": 790,
      "ific": 791,
      "rib": 792,
      "Ġtoo": 793,
      "Ġ6": 794,
      "aking": 795,
      "formation": 796,
      "ward": 797,
      "ange": 798,
      "oss": 799,
      "Ġdown": 800,
      "ied": 801,
      "ty": 802,
      "Ġimp": 803,
      "Ġfin": 804,
      "man": 805,
      "Ġdif": 806,
      "Ġinc": 807,
      "ased": 808,
      "ath": 809,
      "Ġke": 810,
      "),": 811,
      "ert": 812,
      "erson": 813,
      "other": 814,
      "Ġass": 815,
      "Ġmuch": 816,
      "ful": 817,
      "Ġshow": 818,
      "Ġgreat": 819,
      "Ġsm": 820,
      "Ġown": 821,
      "ited": 822,
      "Ġent": 823,
      "get": 824,
      "Ġatt": 825,
      "ict": 826,
      "Ġwee": 827,
      "up": 828,
      "ĠAl": 829,
      "olog": 830,
      "Ġtra": 831,
      "uring": 832,
      "Ġlast": 833,
      ",\"": 834,
      "Ġstart": 835,
      "ble": 836,
      "ĠFor": 837,
      "ĠâĢĵ": 838,
      "und": 839,
      "ork": 840,
      "ible": 841,
      "ility": 842,
      "bs": 843,
      "ĠPro": 844,
      "Ġhere": 845,
      "ures": 846,
      "hes": 847,
      "Ġsuch": 848,
      "its": 849,
      "Ġthose": 850,
      ".âĢĿ": 851,
      "chool": 852,
      "cess": 853,
      "arch": 854,
      "hip": 855,
      "Ġcall": 856,
      "ower": 857,
      "ublic": 858,
      "Ġpres": 859,
      "Ġmade": 860,
      "ics": 861,
      "ular": 862,
      "ms": 863,
      "Ġac": 864,
      "ys": 865,
      "stem": 866,
      "Ġdoes": 867,
      "ell": 868,
      "Ġbefore": 869,
      "ix": 870,
      "omet": 871,
      "ative": 872,
      "air": 873,
      "Ġlong": 874,
      "Ġdec": 875,
      "Ġset": 876,
      "ner": 877,
      "iness": 878,
      "Ġinst": 879,
      "ener": 880,
      "Ġend": 881,
      "Ġmon": 882,
      "ues": 883,
      "gan": 884,
      "Ġday": 885,
      "ci": 886,
      "Ġ7": 887,
      "Ġread": 888,
      "Ġinformation": 889,
      "gram": 890,
      "ices": 891,
      "Ġbeing": 892,
      "Ġinte": 893,
      "velop": 894,
      "Ġpol": 895,
      "Ġhigh": 896,
      "Ġbel": 897,
      "alk": 898,
      "Ġ10": 899,
      "Ġtake": 900,
      "ract": 901,
      "io": 902,
      "Ġfind": 903,
      "meric": 904,
      "Ġspec": 905,
      "Ġeff": 906,
      "Ġmin": 907,
      "Ġpoint": 908,
      "Ġsur": 909,
      "alth": 910,
      "any": 911,
      "ars": 912,
      "ince": 913,
      "pr": 914,
      "Ġgoing": 915,
      "ĠSh": 916,
      "rest": 917,
      "Ġmem": 918,
      "way": 919,
      "Ġ&": 920,
      "Ġbus": 921,
      "Ġ8": 922,
      "Ġsay": 923,
      "ank": 924,
      "Ġbr": 925,
      "Ġra": 926,
      "ins": 927,
      "oun": 928,
      "Ġworld": 929,
      "Ġteam": 930,
      "Ġexper": 931,
      "ax": 932,
      "ollow": 933,
      "Ġloc": 934,
      "ually": 935,
      "Ġreally": 936,
      "Ġop": 937,
      "Ġear": 938,
      "Ġfam": 939,
      "ĠBe": 940,
      "Ġthough": 941,
      "ced": 942,
      "ĠCl": 943,
      "ave": 944,
      "||": 945,
      "ather": 946,
      "Ġcount": 947,
      "ivers": 948,
      "Ġwhile": 949,
      "Ġrun": 950,
      "ĠAmeric": 951,
      "Ġlead": 952,
      "Ġche": 953,
      "ces": 954,
      "Ġthree": 955,
      "ĠAr": 956,
      "Ġins": 957,
      "Ġav": 958,
      "Ġstill": 959,
      "land": 960,
      "Ġperson": 961,
      "imes": 962,
      "Ġsub": 963,
      "ng": 964,
      "self": 965,
      "Ġhand": 966,
      "ĠLe": 967,
      "az": 968,
      "atch": 969,
      "Ġinter": 970,
      "Ġdiffe": 971,
      "ah": 972,
      "Ġret": 973,
      "read": 974,
      "led": 975,
      "Ġrequ": 976,
      "Ġcar": 977,
      "ouse": 978,
      "Ġart": 979,
      "irect": 980,
      "ton": 981,
      "ving": 982,
      "Ġsystem": 983,
      "Ġhome": 984,
      "Ġ9": 985,
      "Ġgr": 986,
      "Ġgame": 987,
      "Ġchar": 988,
      "Ġbest": 989,
      "Ġused": 990,
      "Ġstate": 991,
      "view": 992,
      "ives": 993,
      "roup": 994,
      "ittle": 995,
      "Ġcour": 996,
      "ets": 997,
      "Ġsomet": 998,
      "ĠThere": 999,
      "The": 1000,
      "ex": 1001,
      "Ġser": 1002,
      "Ġsim": 1003,
      "lease": 1004,
      "akes": 1005,
      "Ġprogram": 1006,
      "Ġsame": 1007,
      "Ġnum": 1008,
      "Ġeach": 1009,
      "cept": 1010,
      "ters": 1011,
      "ames": 1012,
      "Ġsl": 1013,
      "Ġmed": 1014,
      "ier": 1015,
      "Ġed": 1016,
      "Ġtrans": 1017,
      "ale": 1018,
      "Ġdevelop": 1019,
      ",âĢĿ": 1020,
      "ros": 1021,
      "ĠAd": 1022,
      "Ġaround": 1023,
      "ĠThey": 1024,
      "ience": 1025,
      "ered": 1026,
      "Ġdisc": 1027,
      "Ġpost": 1028,
      "gg": 1029,
      "ĠOn": 1030,
      "ines": 1031,
      "ĠSo": 1032,
      "ution": 1033,
      "ved": 1034,
      "Ġfollow": 1035,
      "riend": 1036,
      "vern": 1037,
      "Ġfound": 1038,
      "cent": 1039,
      "ween": 1040,
      "Ġmod": 1041,
      "oot": 1042,
      "Ġchild": 1043,
      "ists": 1044,
      "Ġboth": 1045,
      "Ġdef": 1046,
      "Ġcur": 1047,
      "Ġlife": 1048,
      "Ġmark": 1049,
      "ĠJo": 1050,
      "ute": 1051,
      "Ġdet": 1052,
      "ash": 1053,
      "line": 1054,
      "ctions": 1055,
      "Ġsign": 1056,
      "uc": 1057,
      "Ġreal": 1058,
      "Ġvis": 1059,
      "ness": 1060,
      "Ġcre": 1061,
      "ages": 1062,
      "der": 1063,
      "ple": 1064,
      "000": 1065,
      "Ġcare": 1066,
      "iet": 1067,
      "unity": 1068,
      "ient": 1069,
      "ene": 1070,
      "Ġfew": 1071,
      "chn": 1072,
      "Ġbetween": 1073,
      "Ġlittle": 1074,
      "Ġbook": 1075,
      "Ġbusiness": 1076,
      "Ġreport": 1077,
      "Ġexp": 1078,
      "Ġstr": 1079,
      "Ġsupport": 1080,
      "Ġsecond": 1081,
      "ense": 1082,
      "ever": 1083,
      "ĠFr": 1084,
      "ield": 1085,
      "Ġcomple": 1086,
      "Ġrep": 1087,
      "min": 1088,
      "Ġprovid": 1089,
      "Ġgot": 1090,
      "ĠBl": 1091,
      "orn": 1092,
      "Ġ--": 1093,
      "Ġaut": 1094,
      "ize": 1095,
      "arm": 1096,
      "ĠAll": 1097,
      "Ġfil": 1098,
      "bers": 1099,
      "Ġadv": 1100,
      "Ġdesign": 1101,
      "ĠShe": 1102,
      "Ġhapp": 1103,
      "Ġtop": 1104,
      "Ġ'": 1105,
      "Ġplace": 1106,
      "Ġlot": 1107,
      "Ġmonth": 1108,
      "Ġbo": 1109,
      "Ġproduct": 1110,
      "Ġschool": 1111,
      "ĠHow": 1112,
      "illion": 1113,
      "ized": 1114,
      "Ġfeel": 1115,
      "con": 1116,
      "Ġgl": 1117,
      "Ġi": 1118,
      "ention": 1119,
      "Ġlar": 1120,
      "ished": 1121,
      "Ġput": 1122,
      "ves": 1123,
      "Ġ0": 1124,
      "Ġ2012": 1125,
      "Ġduring": 1126,
      "Ġter": 1127,
      "thing": 1128,
      "ants": 1129,
      "Ġpass": 1130,
      "Ġgener": 1131,
      "ired": 1132,
      "Ġthings": 1133,
      "Ġ12": 1134,
      "Ġbig": 1135,
      "ways": 1136,
      "Ġform": 1137,
      "cer": 1138,
      "ailable": 1139,
      "Ġanother": 1140,
      "Ġpur": 1141,
      "ody": 1142,
      "Ġfr": 1143,
      "Ġsk": 1144,
      "Ġcome": 1145,
      "son": 1146,
      "ĠAt": 1147,
      "Ġopen": 1148,
      "Ġcle": 1149,
      "Ġiss": 1150,
      "Ġdifferent": 1151,
      "Ġlist": 1152,
      "Ġwin": 1153,
      "ug": 1154,
      "Ġweek": 1155,
      "Ġagainst": 1156,
      "Ġnext": 1157,
      "Ġmet": 1158,
      "att": 1159,
      "Ġcontin": 1160,
      "Ġhead": 1161,
      "ĠIs": 1162,
      "ĠTo": 1163,
      "ger": 1164,
      "Ġquest": 1165,
      "Ġsince": 1166,
      "ital": 1167,
      "Ġincluding": 1168,
      "Ġfact": 1169,
      "Ġcr": 1170,
      "Ġfull": 1171,
      "Ġdist": 1172,
      "less": 1173,
      "Ġob": 1174,
      "Ġeas": 1175,
      "Ġsomething": 1176,
      "Ġpublic": 1177,
      "Ġext": 1178,
      "Ġtri": 1179,
      "Ġfour": 1180,
      "'re": 1181,
      "Ġgroup": 1182,
      "ology": 1183,
      "atur": 1184,
      "Ġfree": 1185,
      "ision": 1186,
      "Ġtry": 1187,
      "Ġlove": 1188,
      "Ġbetter": 1189,
      "Ġplan": 1190,
      "Ġmust": 1191,
      "Ġfun": 1192,
      "ĠQ": 1193,
      "be": 1194,
      "Ġkeep": 1195,
      "ross": 1196,
      "Ġnever": 1197,
      "Ġinterest": 1198,
      "Ġappro": 1199,
      "Ġresp": 1200,
      "Ġpartic": 1201,
      "Ġsays": 1202,
      "ĠThat": 1203,
      "Ġcent": 1204,
      "Ġrece": 1205,
      "Ġmov": 1206,
      "ĠPl": 1207,
      "ature": 1208,
      "ata": 1209,
      "ĠâĢĶ": 1210,
      "Ġref": 1211,
      "arn": 1212,
      "iversity": 1213,
      "ĠPh": 1214,
      "ĠChr": 1215,
      "Ġfriend": 1216,
      "Ġwithout": 1217,
      "Ġpri": 1218,
      "Ġprof": 1219,
      "Ġrest": 1220,
      "ik": 1221,
      "reen": 1222,
      "ott": 1223,
      "Ġavailable": 1224,
      "Ġbro": 1225,
      "ĠWhen": 1226,
      "ically": 1227,
      "Ġconf": 1228,
      "Ġhard": 1229,
      "aj": 1230,
      "Ġstand": 1231,
      "ared": 1232,
      "Ġcor": 1233,
      "Ġask": 1234,
      "ĠWhat": 1235,
      "gy": 1236,
      "'m": 1237,
      "Ġallow": 1238,
      "ĠCol": 1239,
      "uss": 1240,
      "rence": 1241,
      "Ġdirect": 1242,
      "ird": 1243,
      "iving": 1244,
      "Ġimport": 1245,
      "ĠEx": 1246,
      "Ġsmall": 1247,
      "ional": 1248,
      "Ġposs": 1249,
      "Ġopp": 1250,
      "ER": 1251,
      "ret": 1252,
      "ĠOr": 1253,
      "Ġseason": 1254,
      "Ġlaw": 1255,
      "oad": 1256,
      "ĠCon": 1257,
      "Ġlet": 1258,
      "rand": 1259,
      "Ġresult": 1260,
      "ĠTe": 1261,
      "Ġwr": 1262,
      "ering": 1263,
      "Ġprocess": 1264,
      "Ġwom": 1265,
      "ism": 1266,
      "Ġhealth": 1267,
      "Ġproble": 1268,
      "ĠMay": 1269,
      "ustom": 1270,
      "ately": 1271,
      "Ġ18": 1272,
      "Ġmight": 1273,
      "Ġgovern": 1274,
      "ards": 1275,
      "Ġold": 1276,
      "Ġseem": 1277,
      "Ġalways": 1278,
      "Ġ[": 1279,
      "Ġtechn": 1280,
      "Ġpat": 1281,
      "Ġmus": 1282,
      "uck": 1283,
      "Ġfamily": 1284,
      "Ġ11": 1285,
      "Ġnumber": 1286,
      "Ġusing": 1287,
      "Ġdri": 1288,
      "ploy": 1289,
      "ĠComm": 1290,
      "Ġinf": 1291,
      "the": 1292,
      "Ġunt": 1293,
      "ww": 1294,
      "ality": 1295,
      "Ġclass": 1296,
      "Ġorgan": 1297,
      "Ġann": 1298,
      "ined": 1299,
      "aint": 1300,
      "oney": 1301,
      "ee": 1302,
      "ling": 1303,
      "ample": 1304,
      "Ġ20": 1305,
      "ission": 1306,
      "pped": 1307,
      "Ġbelie": 1308,
      "Ġel": 1309,
      "ior": 1310,
      ".,": 1311,
      "'ve": 1312,
      "ĠZ": 1313,
      "ining": 1314,
      "ĠCent": 1315,
      "Ġpower": 1316,
      "co": 1317,
      "ann": 1318,
      "ope": 1319,
      "ertain": 1320,
      "Ġperform": 1321,
      "hn": 1322,
      "ok": 1323,
      "Ġsol": 1324,
      "ware": 1325,
      "ĠInd": 1326,
      "Ġincre": 1327,
      "br": 1328,
      "ley": 1329,
      "rol": 1330,
      "ably": 1331,
      "Ġty": 1332,
      "Ġval": 1333,
      "Ġexpl": 1334,
      "iqu": 1335,
      "Ġdays": 1336,
      "ged": 1337,
      "Ġturn": 1338,
      "Ġide": 1339,
      "ĠMar": 1340,
      "ote": 1341,
      "Ġsure": 1342,
      "Ġbuild": 1343,
      "Ġsoc": 1344,
      "ĠSp": 1345,
      "Ġwater": 1346,
      "Ġ2013": 1347,
      "--": 1348,
      "enn": 1349,
      "Ġvar": 1350,
      "Ġgive": 1351,
      "ats": 1352,
      "Ġnight": 1353,
      "outh": 1354,
      "osed": 1355,
      "Ġlevel": 1356,
      "Ġless": 1357,
      "ember": 1358,
      "Ġ15": 1359,
      "gin": 1360,
      "Ġdel": 1361,
      "âĢĶ": 1362,
      "stand": 1363,
      "me": 1364,
      "Ġpay": 1365,
      "Ġeffect": 1366,
      "...": 1367,
      "Ġcompany": 1368,
      "Ġca": 1369,
      "Ġproject": 1370,
      "Ġbre": 1371,
      "ĠUS": 1372,
      "Ġcurrent": 1373,
      "ĠSc": 1374,
      "els": 1375,
      "Ġmarket": 1376,
      "Ġleft": 1377,
      "Ġrecord": 1378,
      "ĠWith": 1379,
      "Ġpast": 1380,
      "raph": 1381,
      "Ġtoday": 1382,
      "ĠMy": 1383,
      "ccess": 1384,
      "Ġoffic": 1385,
      "let": 1386,
      "Ġdidn": 1387,
      "Ġmeet": 1388,
      "ency": 1389,
      "orth": 1390,
      "ases": 1391,
      "iver": 1392,
      "Ġpercent": 1393,
      "Ġview": 1394,
      "Ġve": 1395,
      "ĠTr": 1396,
      "Ġcost": 1397,
      "Ġrese": 1398,
      "ator": 1399,
      "Ġservice": 1400,
      "med": 1401,
      "Ġleg": 1402,
      "Ġuntil": 1403,
      "Ġpos": 1404,
      "here": 1405,
      "Ġjob": 1406,
      "Ġaway": 1407,
      "tend": 1408,
      "conom": 1409,
      "lection": 1410,
      "pend": 1411,
      "ĠRes": 1412,
      "Ġtest": 1413,
      "to": 1414,
      "alf": 1415,
      "inal": 1416,
      "10": 1417,
      "Ġhum": 1418,
      "ently": 1419,
      "Ġprev": 1420,
      "ĠUniversity": 1421,
      "ĠJohn": 1422,
      "pping": 1423,
      "ĠNo": 1424,
      "Ġcustom": 1425,
      "augh": 1426,
      "Ġinvest": 1427,
      "hor": 1428,
      "ours": 1429,
      "Ġchildren": 1430,
      "Ġimportant": 1431,
      "ĠÂ": 1432,
      "ral": 1433,
      "ĠChrist": 1434,
      "ains": 1435,
      "ption": 1436,
      "ina": 1437,
      "âĢ¦": 1438,
      "ron": 1439,
      "Ġoper": 1440,
      "Ġorder": 1441,
      "Ġthing": 1442,
      "Ġfac": 1443,
      "ney": 1444,
      "Ġhist": 1445,
      "ĠAmerican": 1446,
      "Ġsit": 1447,
      "Ġphot": 1448,
      "oint": 1449,
      "Ġsite": 1450,
      "Ġprom": 1451,
      "ised": 1452,
      "ium": 1453,
      "ten": 1454,
      "Ġgrow": 1455,
      "ĠCar": 1456,
      "arent": 1457,
      "Ġable": 1458,
      "Ġnear": 1459,
      "Ġbas": 1460,
      "Ġline": 1461,
      "Ġbeh": 1462,
      "ured": 1463,
      "ury": 1464,
      "IN": 1465,
      "Ġdem": 1466,
      "Ġmar": 1467,
      "Ġarea": 1468,
      "ges": 1469,
      "Ġtell": 1470,
      "urs": 1471,
      "Ġest": 1472,
      "Ġname": 1473,
      "Ġexperience": 1474,
      "Ġexpect": 1475,
      "'ll": 1476,
      "work": 1477,
      "Ġcase": 1478,
      "Ġlight": 1479,
      "Ġ199": 1480,
      "Ġdata": 1481,
      "ajor": 1482,
      "Ġpop": 1483,
      "Ġaff": 1484,
      "ĠCo": 1485,
      "iting": 1486,
      "Ġnews": 1487,
      "ĠRep": 1488,
      "ON": 1489,
      "Ġgovernment": 1490,
      "oci": 1491,
      "ived": 1492,
      "atter": 1493,
      "Ġspecial": 1494,
      "ĠFl": 1495,
      "ories": 1496,
      "ama": 1497,
      "Ġstudents": 1498,
      "Ġdr": 1499,
      "ified": 1500,
      "Ġaccess": 1501,
      "Ġfar": 1502,
      "ps": 1503,
      "Ġsing": 1504,
      "Ġlocal": 1505,
      "Ġmillion": 1506,
      "Ġmaking": 1507,
      "Ġtalk": 1508,
      "utes": 1509,
      "ration": 1510,
      "Ġ2011": 1511,
      "Ġword": 1512,
      "ĠFe": 1513,
      "Ġsal": 1514,
      "Ġfood": 1515,
      "ane": 1516,
      "ĠState": 1517,
      "Ġwithin": 1518,
      "veral": 1519,
      "Ġkind": 1520,
      "Ġpresent": 1521,
      "Ġcourse": 1522,
      "50": 1523,
      "Ġchange": 1524,
      "Ġchang": 1525,
      "Ġcap": 1526,
      "Ġcame": 1527,
      "ready": 1528,
      "por": 1529,
      "iron": 1530,
      "Ġdra": 1531,
      "ĠOne": 1532,
      "Ġever": 1533,
      "by": 1534,
      "une": 1535,
      "ider": 1536,
      "ball": 1537,
      "Ġcamp": 1538,
      "Ġwhy": 1539,
      "Ġdep": 1540,
      "Ġenough": 1541,
      "itions": 1542,
      "Ġcalled": 1543,
      "Ġtimes": 1544,
      "iven": 1545,
      "Ġmoney": 1546,
      "Ġprovide": 1547,
      "ored": 1548,
      "Ġvide": 1549,
      "ries": 1550,
      "Ġmembers": 1551,
      "ording": 1552,
      "Ġaddition": 1553,
      "Ġair": 1554,
      "ivid": 1555,
      "mber": 1556,
      "Ġlooking": 1557,
      "Ġlarge": 1558,
      "aut": 1559,
      "ted": 1560,
      "ubl": 1561,
      "ĠMan": 1562,
      "ids": 1563,
      "Ġequ": 1564,
      "ruct": 1565,
      "30": 1566,
      "Ġmil": 1567,
      "Ġcountry": 1568,
      "ows": 1569,
      "uff": 1570,
      "Ġevent": 1571,
      "icle": 1572,
      "aim": 1573,
      "ream": 1574,
      "Ġroom": 1575,
      "aring": 1576,
      "Ġstory": 1577,
      "ec": 1578,
      "ization": 1579,
      "Ġeng": 1580,
      "Ġworking": 1581,
      "ĠSte": 1582,
      "Ġprote": 1583,
      "ither": 1584,
      "ĠâĢĺ": 1585,
      "bo": 1586,
      "Ġleast": 1587,
      "Ġalready": 1588,
      "Ġconst": 1589,
      "irl": 1590,
      "Ġsw": 1591,
      "Ġmen": 1592,
      "ising": 1593,
      "Ġhaving": 1594,
      "Ġintern": 1595,
      "artment": 1596,
      "Ġ30": 1597,
      "AT": 1598,
      "ode": 1599,
      "ĠBr": 1600,
      "Ġmove": 1601,
      "Ġcommunity": 1602,
      "Ġproper": 1603,
      "iday": 1604,
      "ES": 1605,
      "ead": 1606,
      "Ġbit": 1607,
      "aff": 1608,
      "iety": 1609,
      "19": 1610,
      "ained": 1611,
      "Ġwent": 1612,
      "Ġfive": 1613,
      "We": 1614,
      "Ġtoget": 1615,
      "Ġtogether": 1616,
      "Ġtook": 1617,
      "ĠAfter": 1618,
      "Ġshort": 1619,
      "ify": 1620,
      "Ġonline": 1621,
      "side": 1622,
      "ery": 1623,
      "Ġside": 1624,
      "Ġdone": 1625,
      "ush": 1626,
      "Ġpract": 1627,
      "Ġseveral": 1628,
      "Ġsuccess": 1629,
      "Ġthought": 1630,
      "iam": 1631,
      "Ġinclude": 1632,
      "ĠApp": 1633,
      "ference": 1634,
      "ony": 1635,
      "ĠSu": 1636,
      "Ġeconom": 1637,
      "Ġactiv": 1638,
      "Ġmusic": 1639,
      "aster": 1640,
      "Ġemploy": 1641,
      "avor": 1642,
      "12": 1643,
      "Ġmajor": 1644,
      "ability": 1645,
      "ials": 1646,
      "Ġimpro": 1647,
      "ills": 1648,
      "Ġalong": 1649,
      "Ġapplic": 1650,
      "ĠAm": 1651,
      "Ġwon": 1652,
      "Ġcomplete": 1653,
      "Ġreturn": 1654,
      "Ġservices": 1655,
      "ĠCan": 1656,
      "Ġwrit": 1657,
      "ĠUnited": 1658,
      "Ġes": 1659,
      "joy": 1660,
      "Ġocc": 1661,
      "ern": 1662,
      "omm": 1663,
      "Ġtold": 1664,
      "ĠWor": 1665,
      "Ġdoesn": 1666,
      "Ġelect": 1667,
      "Ġpoints": 1668,
      "Ġfeat": 1669,
      "Ġwebs": 1670,
      "Ġpa": 1671,
      "Ġgetting": 1672,
      "ĠIntern": 1673,
      "Ġdoing": 1674,
      "Ġfund": 1675,
      "Ġfollowing": 1676,
      "Ġcou": 1677,
      "eral": 1678,
      "ĠNe": 1679,
      "ĠMed": 1680,
      "tt": 1681,
      "Ġ16": 1682,
      "Ġoften": 1683,
      "Ġcond": 1684,
      "rop": 1685,
      "idd": 1686,
      "Ġwomen": 1687,
      "ĠDo": 1688,
      "Ġbecome": 1689,
      "AR": 1690,
      "Ġnon": 1691,
      "Ġ14": 1692,
      "ots": 1693,
      "use": 1694,
      "Ġcut": 1695,
      "Ġcontrol": 1696,
      "orts": 1697,
      "acy": 1698,
      "Ġcity": 1699,
      "ĠBy": 1700,
      "ians": 1701,
      "Ġmean": 1702,
      "ĠCount": 1703,
      "Ġago": 1704,
      "Ġtax": 1705,
      "atic": 1706,
      "Ġgames": 1707,
      "crib": 1708,
      "Ġmakes": 1709,
      "Ġunderstand": 1710,
      "Ġdev": 1711,
      "ĠYork": 1712,
      "OR": 1713,
      "ched": 1714,
      "Ġhold": 1715,
      "most": 1716,
      "used": 1717,
      "aps": 1718,
      "ients": 1719,
      "Ġprofess": 1720,
      "ĠEng": 1721,
      "Ġtrad": 1722,
      "oice": 1723,
      "Ġearly": 1724,
      "ĠThese": 1725,
      "ober": 1726,
      "uro": 1727,
      "ĠCal": 1728,
      "AN": 1729,
      "Ġyoung": 1730,
      "Ġeduc": 1731,
      "Ġothers": 1732,
      "ĠBro": 1733,
      "Ġlearn": 1734,
      "ĠGod": 1735,
      "lege": 1736,
      "ands": 1737,
      "Ġlim": 1738,
      "Ġvisit": 1739,
      "Ġreview": 1740,
      "Ġ>": 1741,
      "ides": 1742,
      "arr": 1743,
      "Ġorig": 1744,
      "Ġcharact": 1745,
      "Ġlive": 1746,
      "Ġemail": 1747,
      "Ġfore": 1748,
      "ĠSy": 1749,
      "Ġdeal": 1750,
      "fer": 1751,
      "Ġlater": 1752,
      "Ġresearch": 1753,
      "Ġ13": 1754,
      "ances": 1755,
      "Ġindust": 1756,
      "ĠAss": 1757,
      "uture": 1758,
      "ourn": 1759,
      "Ġhappen": 1760,
      "Ġ2010": 1761,
      "Ġhalf": 1762,
      "Ġvers": 1763,
      "Ġcertain": 1764,
      "ones": 1765,
      "Ġnet": 1766,
      "Ġyet": 1767,
      "ĠJan": 1768,
      "Ġhouse": 1769,
      "Ġpolit": 1770,
      "ĠMc": 1771,
      "app": 1772,
      "agement": 1773,
      "ĠPres": 1774,
      "Ġcheck": 1775,
      "ĠMe": 1776,
      "ĠNot": 1777,
      "ĠEn": 1778,
      "viron": 1779,
      "fect": 1780,
      "uly": 1781,
      "ister": 1782,
      "Ġ17": 1783,
      "ĠTw": 1784,
      "Ġonce": 1785,
      "ĠPr": 1786,
      "book": 1787,
      "of": 1788,
      "Ġtreat": 1789,
      "Ġaccount": 1790,
      "20": 1791,
      "Ġbuy": 1792,
      "Ġpot": 1793,
      "Ġce": 1794,
      "ination": 1795,
      "Ġpossible": 1796,
      "allen": 1797,
      "Ġenjoy": 1798,
      "Ġpage": 1799,
      "Ġappear": 1800,
      "Ġhot": 1801,
      "sh": 1802,
      "Ġbased": 1803,
      "reet": 1804,
      "aken": 1805,
      "rew": 1806,
      "ĠCont": 1807,
      "itive": 1808,
      "Ġquestion": 1809,
      "Ġcreat": 1810,
      "for": 1811,
      "Ġmonths": 1812,
      "oon": 1813,
      "Ġtre": 1814,
      "ĠNational": 1815,
      "Ġactually": 1816,
      "Ġinvol": 1817,
      "ĠCity": 1818,
      "Ġpar": 1819,
      "Ġfield": 1820,
      "rap": 1821,
      "yle": 1822,
      "Ġclear": 1823,
      "Ġ*": 1824,
      "ĠX": 1825,
      "icy": 1826,
      "ividual": 1827,
      "lement": 1828,
      "Ġfoc": 1829,
      "Ġprob": 1830,
      "fort": 1831,
      "Ġey": 1832,
      "Ġreason": 1833,
      "ensive": 1834,
      "Ġbene": 1835,
      "Ġla": 1836,
      "Ġproducts": 1837,
      "ging": 1838,
      "ĠEd": 1839,
      "Ġcompet": 1840,
      "Ġlow": 1841,
      "ully": 1842,
      "not": 1843,
      "Ġstarted": 1844,
      "Ġwa": 1845,
      ".)": 1846,
      "Ġmom": 1847,
      "Ġsix": 1848,
      "Ġmeans": 1849,
      "Ġmater": 1850,
      "ler": 1851,
      "ource": 1852,
      "Ġopport": 1853,
      "Ġvideo": 1854,
      "Ġclose": 1855,
      "Ġdiscuss": 1856,
      "duct": 1857,
      "Ġfriends": 1858,
      "osp": 1859,
      "Ġproblem": 1860,
      "ille": 1861,
      "ĠGr": 1862,
      "Ġcontact": 1863,
      "Ġneeds": 1864,
      "ĠGu": 1865,
      "11": 1866,
      "ĠServ": 1867,
      "ump": 1868,
      "opy": 1869,
      "ison": 1870,
      "ential": 1871,
      "Ġminutes": 1872,
      "Ġdetail": 1873,
      "ape": 1874,
      "lev": 1875,
      "Ġsoft": 1876,
      "org": 1877,
      "Ġthird": 1878,
      "Ġoffer": 1879,
      "hers": 1880,
      "ĠOff": 1881,
      "Ġpress": 1882,
      "Ġopt": 1883,
      "Ġaddress": 1884,
      "itor": 1885,
      "Ġstrong": 1886,
      "inc": 1887,
      "Ġpersonal": 1888,
      "Ġsum": 1889,
      "sw": 1890,
      "vironment": 1891,
      "ĠOur": 1892,
      "Ġquick": 1893,
      "ograph": 1894,
      "illed": 1895,
      "Ġseen": 1896,
      "urity": 1897,
      "Ġauthor": 1898,
      "Ġblog": 1899,
      "ĠOb": 1900,
      "Ġsound": 1901,
      "verage": 1902,
      "Ġbody": 1903,
      "rict": 1904,
      "Ġfuture": 1905,
      "Ġgiven": 1906,
      "ĠWill": 1907,
      "urch": 1908,
      "Ġwebsite": 1909,
      "Ġmind": 1910,
      "ĠBo": 1911,
      "Ġeasy": 1912,
      "ĠNow": 1913,
      "wards": 1914,
      "ique": 1915,
      "Ġparticular": 1916,
      "Ġdevelopment": 1917,
      "Ġhours": 1918,
      "Ġmor": 1919,
      "aces": 1920,
      "ĠComp": 1921,
      "idence": 1922,
      "lish": 1923,
      "ches": 1924,
      "Ġacross": 1925,
      "ued": 1926,
      "EN": 1927,
      "Ġbring": 1928,
      "Ġindividual": 1929,
      "ĠTH": 1930,
      "ĠCenter": 1931,
      "ĠChe": 1932,
      "Ġcommun": 1933,
      "Ġbelieve": 1934,
      "de": 1935,
      "resent": 1936,
      "back": 1937,
      "Ġcomes": 1938,
      "ĠStates": 1939,
      "ĠAb": 1940,
      "year": 1941,
      "Ġcomb": 1942,
      "ift": 1943,
      "ips": 1944,
      "It": 1945,
      "Ġworks": 1946,
      "Th": 1947,
      "nes": 1948,
      "Ġmult": 1949,
      "ights": 1950,
      "Ġanything": 1951,
      "iously": 1952,
      "Ġ25": 1953,
      "Ġprop": 1954,
      "Ġhuman": 1955,
      "Ġant": 1956,
      "unch": 1957,
      "urther": 1958,
      "ned": 1959,
      "Ġwhether": 1960,
      "Ġsocial": 1961,
      "cially": 1962,
      "Ġheart": 1963,
      "Ġtot": 1964,
      "load": 1965,
      "ources": 1966,
      "Ġbenef": 1967,
      "Ġbegin": 1968,
      "Ġstudy": 1969,
      "ĠHowever": 1970,
      "Ġclaim": 1971,
      "ĠWorld": 1972,
      "Ġredu": 1973,
      "Ġpriv": 1974,
      "Ġwalk": 1975,
      "ĠPost": 1976,
      "Ġhistory": 1977,
      "Ġquality": 1978,
      "Ġ2009": 1979,
      "Ġknown": 1980,
      "Ġexample": 1981,
      "Ġdeb": 1982,
      "ĠMin": 1983,
      "ĠDep": 1984,
      "Ġpack": 1985,
      "though": 1986,
      "Ġwhole": 1987,
      "Ġamong": 1988,
      "Ġ24": 1989,
      "ĠSec": 1990,
      "Ġitem": 1991,
      "Ġhig": 1992,
      "oor": 1993,
      "Ġident": 1994,
      "Ġfilm": 1995,
      "ĠPe": 1996,
      "isk": 1997,
      "Ġjo": 1998,
      "Ġseries": 1999,
      "over": 2000,
      "cial": 2001,
      "Ġpret": 2002,
      "Ġvol": 2003,
      "ĠHis": 2004,
      "Ġkey": 2005,
      "//": 2006,
      "ulation": 2007,
      "Ġfront": 2008,
      "ĠJust": 2009,
      "ided": 2010,
      "Ġplease": 2011,
      "AS": 2012,
      "play": 2013,
      "ster": 2014,
      "Ġsomeone": 2015,
      "ĠInst": 2016,
      "ĠGe": 2017,
      "ĠSchool": 2018,
      "ĠMore": 2019,
      "ners": 2020,
      "Ġbad": 2021,
      "ĠNorth": 2022,
      "ĠCounty": 2023,
      "lling": 2024,
      "go": 2025,
      "Ġface": 2026,
      "irc": 2027,
      "iod": 2028,
      "ators": 2029,
      "201": 2030,
      "wh": 2031,
      "Ġhope": 2032,
      "itted": 2033,
      "Ġeither": 2034,
      "Ġconcer": 2035,
      "ĠApr": 2036,
      "Ġsn": 2037,
      "ences": 2038,
      "par": 2039,
      "ocu": 2040,
      "ilar": 2041,
      "Ġpubl": 2042,
      "ĠEuro": 2043,
      "Ġfavor": 2044,
      "Ġperfect": 2045,
      "arter": 2046,
      "ĠPer": 2047,
      "ring": 2048,
      "Ġmiss": 2049,
      "Ġdou": 2050,
      "pro": 2051,
      "Ġpick": 2052,
      "ĠKe": 2053,
      "Ġrespons": 2054,
      "Ġasked": 2055,
      "__": 2056,
      "Ġspecific": 2057,
      "Ġfre": 2058,
      "Ġmain": 2059,
      "nect": 2060,
      "Ġshare": 2061,
      "Ġpie": 2062,
      "Ġbreak": 2063,
      "ĠSome": 2064,
      "Ġtrying": 2065,
      "Ġhit": 2066,
      "Ġalmost": 2067,
      "ilities": 2068,
      "Ġtem": 2069,
      "Ġprobably": 2070,
      "ĠDes": 2071,
      "ural": 2072,
      "ggest": 2073,
      "Ġste": 2074,
      "Ġmess": 2075,
      "Ġmanag": 2076,
      "Ġtaking": 2077,
      "Ġsuper": 2078,
      "ĠSm": 2079,
      "Ġsingle": 2080,
      "Ġcreate": 2081,
      "Ġcred": 2082,
      "Ġanal": 2083,
      "200": 2084,
      "Ġbelow": 2085,
      "anks": 2086,
      "ĠBar": 2087,
      "Ġstay": 2088,
      "Ġenc": 2089,
      "Ġpretty": 2090,
      "ateg": 2091,
      "Ġeverything": 2092,
      "Ġsent": 2093,
      "Ġabove": 2094,
      "Ġwatch": 2095,
      "Ġener": 2096,
      "pecially": 2097,
      "Ġissues": 2098,
      "abor": 2099,
      "cri": 2100,
      "Ġcrit": 2101,
      "Ġage": 2102,
      "Ġannoun": 2103,
      "ĠWhile": 2104,
      "elt": 2105,
      "ĠDav": 2106,
      "Ġwond": 2107,
      "ĠQu": 2108,
      "ĠSouth": 2109,
      "://": 2110,
      "isc": 2111,
      "ĠYour": 2112,
      "ĠGo": 2113,
      "aining": 2114,
      "iol": 2115,
      "AL": 2116,
      "Ġpurch": 2117,
      "IT": 2118,
      "utions": 2119,
      "Ġstep": 2120,
      "Ġbeaut": 2121,
      "ĠMarch": 2122,
      "irt": 2123,
      "Ġissue": 2124,
      "Ġwanted": 2125,
      "ĠFeb": 2126,
      "right": 2127,
      "ague": 2128,
      "Ġwar": 2129,
      "ai": 2130,
      "'d": 2131,
      "af": 2132,
      "IS": 2133,
      "Ġstore": 2134,
      "Ġwind": 2135,
      "Ġgirl": 2136,
      "Ġ100": 2137,
      "ially": 2138,
      "ĠPol": 2139,
      "my": 2140,
      "selves": 2141,
      "ibr": 2142,
      "lf": 2143,
      "Ġtaken": 2144,
      "ried": 2145,
      "Ġcoming": 2146,
      "ief": 2147,
      "Ġsuggest": 2148,
      "Ġtyp": 2149,
      "ttp": 2150,
      "Ġpict": 2151,
      "Ġmedia": 2152,
      "Ġadded": 2153,
      "Ġmag": 2154,
      "ĠAmerica": 2155,
      "Ġcompan": 2156,
      "nding": 2157,
      "ĠIm": 2158,
      "ibility": 2159,
      "Ġentire": 2160,
      "ĠEm": 2161,
      "fully": 2162,
      "Ġz": 2163,
      "Ġcomput": 2164,
      "minist": 2165,
      "Ġchallen": 2166,
      "Ġquestions": 2167,
      "ctor": 2168,
      "room": 2169,
      "imate": 2170,
      "Ġ2008": 2171,
      "oose": 2172,
      "ĠPart": 2173,
      "yl": 2174,
      "Ġelse": 2175,
      "Ġball": 2176,
      "ĠPresident": 2177,
      "Ġet": 2178,
      "Ġaud": 2179,
      "gest": 2180,
      "atural": 2181,
      "Ġport": 2182,
      "Ġbar": 2183,
      "Ġheld": 2184,
      "ĠHere": 2185,
      "Ġcompl": 2186,
      "time": 2187,
      "ilt": 2188,
      "ĠEurope": 2189,
      "ashing": 2190,
      "ĠOct": 2191,
      "Ġfoot": 2192,
      "rain": 2193,
      "itch": 2194,
      "Ġred": 2195,
      "ĠFriday": 2196,
      "Ġfall": 2197,
      "ply": 2198,
      "Ġplayers": 2199,
      "Ġindustry": 2200,
      "Ġidea": 2201,
      "Ġparticip": 2202,
      "ED": 2203,
      "gress": 2204,
      "eng": 2205,
      "Ġaccording": 2206,
      "itting": 2207,
      "iber": 2208,
      "umb": 2209,
      "Ġsearch": 2210,
      "ogn": 2211,
      "Ġ/": 2212,
      "ĠMich": 2213,
      "Ġfail": 2214,
      "irm": 2215,
      "fic": 2216,
      "ops": 2217,
      "Ġphys": 2218,
      "Ġrequire": 2219,
      "Ġhost": 2220,
      "ĠCor": 2221,
      "yn": 2222,
      "Ġ21": 2223,
      "uation": 2224,
      "hod": 2225,
      "off": 2226,
      "ocr": 2227,
      "ederal": 2228,
      "Ġresults": 2229,
      "Ġperiod": 2230,
      "Ġcontent": 2231,
      "Ġparent": 2232,
      "Ġnothing": 2233,
      "resh": 2234,
      "Ġfinal": 2235,
      "Ġbehind": 2236,
      "Ġeveryone": 2237,
      "Ġ:": 2238,
      "Ġrepl": 2239,
      "ror": 2240,
      "Ġrather": 2241,
      "Ġexc": 2242,
      "Ġprice": 2243,
      "Ġtrack": 2244,
      "Ġoffice": 2245,
      "Ġquite": 2246,
      "Ġcult": 2247,
      "aturday": 2248,
      "ĠSpe": 2249,
      "ĠEl": 2250,
      "Ġdi": 2251,
      "ung": 2252,
      "Ġenvironment": 2253,
      "ĠJune": 2254,
      "Ġdeter": 2255,
      "ĠApril": 2256,
      "Ġenergy": 2257,
      "aced": 2258,
      "aur": 2259,
      "Ġer": 2260,
      "Ġland": 2261,
      "ĠHouse": 2262,
      "ancial": 2263,
      "ĠAg": 2264,
      "ili": 2265,
      "Ġblack": 2266,
      "uary": 2267,
      "ĠPa": 2268,
      "Ġstaff": 2269,
      "Ġrepresent": 2270,
      "inks": 2271,
      "itten": 2272,
      "rie": 2273,
      "Ġmot": 2274,
      "Ġcontinue": 2275,
      "ĠWest": 2276,
      "Ġattack": 2277,
      "Ġamount": 2278,
      "Ġ#": 2279,
      "Ġformer": 2280,
      "ask": 2281,
      "reg": 2282,
      "Ġtool": 2283,
      "Ġfurther": 2284,
      "15": 2285,
      "asing": 2286,
      "Ġperformance": 2287,
      "ĠAug": 2288,
      "ĠAf": 2289,
      "Ġhom": 2290,
      "Ġdeath": 2291,
      "Ġdocu": 2292,
      "Ġmeas": 2293,
      "Ġisn": 2294,
      "IC": 2295,
      "rodu": 2296,
      "Ġhon": 2297,
      "Ġmember": 2298,
      "Ġfire": 2299,
      "Ġ50": 2300,
      "ĠMark": 2301,
      "Ġlikely": 2302,
      "ites": 2303,
      "Ġhowever": 2304,
      "Ġrecomm": 2305,
      "Ġtit": 2306,
      "ĠSaturday": 2307,
      "ĠStud": 2308,
      "Ġcourt": 2309,
      "Ġweeks": 2310,
      "vert": 2311,
      "Ġposition": 2312,
      "ole": 2313,
      "Ġbuilding": 2314,
      "Ġseems": 2315,
      "Ġespecially": 2316,
      "ĠSund": 2317,
      "Ġrecommend": 2318,
      "ĠObama": 2319,
      "Ġtravel": 2320,
      "Ġconsider": 2321,
      "Ġtou": 2322,
      "Ġrelations": 2323,
      "ĠHer": 2324,
      "ĠGl": 2325,
      "Ġpresident": 2326,
      "ĠWed": 2327,
      "Ġagree": 2328,
      "Ġ198": 2329,
      "leased": 2330,
      "ples": 2331,
      "rug": 2332,
      "ĠPlease": 2333,
      "Ġparty": 2334,
      "empt": 2335,
      "ĠPark": 2336,
      "ĠFrom": 2337,
      "Ġcommon": 2338,
      "head": 2339,
      "ĠMr": 2340,
      "Ġsoon": 2341,
      "ĠHar": 2342,
      "mit": 2343,
      "Ġaction": 2344,
      "Ġsex": 2345,
      "ĠNews": 2346,
      "Ġfocus": 2347,
      "ĠAct": 2348,
      "eter": 2349,
      "Ġcompanies": 2350,
      "Ġrunning": 2351,
      "amer": 2352,
      "Ġproblems": 2353,
      "Ġspace": 2354,
      "Ġlink": 2355,
      "mb": 2356,
      "Ġansw": 2357,
      "val": 2358,
      "Ġfeatures": 2359,
      "Ġdue": 2360,
      "Ġnational": 2361,
      "iff": 2362,
      "ĠDon": 2363,
      "25": 2364,
      "che": 2365,
      "Ġtechnology": 2366,
      "Ġupd": 2367,
      "ox": 2368,
      "Ġrecent": 2369,
      "Ġnecess": 2370,
      "ĠReg": 2371,
      "Ġareas": 2372,
      "Ġneeded": 2373,
      "olution": 2374,
      "pper": 2375,
      "Ġreceived": 2376,
      "roll": 2377,
      "Ġcharacter": 2378,
      "ĠMond": 2379,
      "Ġoffers": 2380,
      "Ġevents": 2381,
      "cell": 2382,
      "Ġforward": 2383,
      "Ġprovided": 2384,
      "ĠâĢ¢": 2385,
      "ĠSept": 2386,
      "Ġcal": 2387,
      "Ġsubject": 2388,
      "Ġbase": 2389,
      "oph": 2390,
      "angu": 2391,
      "ficult": 2392,
      "Ġdam": 2393,
      "Ġlate": 2394,
      "Ġgeneral": 2395,
      "Ġweb": 2396,
      "Ġfig": 2397,
      "RE": 2398,
      "amed": 2399,
      "Ġupon": 2400,
      "AC": 2401,
      "Ġlog": 2402,
      "obal": 2403,
      "lex": 2404,
      "ume": 2405,
      "Ġaccept": 2406,
      "Ġground": 2407,
      "ental": 2408,
      "ively": 2409,
      "eds": 2410,
      "ĠDay": 2411,
      "Ġtext": 2412,
      "come": 2413,
      "ĠPre": 2414,
      "Ġinj": 2415,
      "ounc": 2416,
      "raft": 2417,
      "Ġvalue": 2418,
      "Ġwords": 2419,
      "Ġstat": 2420,
      "ees": 2421,
      "Ġrad": 2422,
      "Ġmaint": 2423,
      "ĠHigh": 2424,
      "Ġexist": 2425,
      "Ġrange": 2426,
      "ĠDepartment": 2427,
      "13": 2428,
      "ĠAcc": 2429,
      "aign": 2430,
      "Ġsong": 2431,
      "Ġoutside": 2432,
      "ises": 2433,
      "Ġstri": 2434,
      "oved": 2435,
      "Ġanyone": 2436,
      "Ġabs": 2437,
      "Ġap": 2438,
      "Ġdifficult": 2439,
      "Ġsaw": 2440,
      "lebr": 2441,
      "ledge": 2442,
      "ze": 2443,
      "Ġincludes": 2444,
      "Ġcouple": 2445,
      "aching": 2446,
      "ĠPM": 2447,
      "Ġtrue": 2448,
      "ĠWar": 2449,
      "Ġarticle": 2450,
      "Ġmatter": 2451,
      "iddle": 2452,
      "Ġswe": 2453,
      "Ġinit": 2454,
      "bor": 2455,
      "Ġsimilar": 2456,
      "Ġimprove": 2457,
      "Ġvict": 2458,
      "ĠMonday": 2459,
      "Ġinstall": 2460,
      "ĠSunday": 2461,
      "Ġshows": 2462,
      "icated": 2463,
      "itte": 2464,
      "Ġcard": 2465,
      "Ġ22": 2466,
      "ĠDr": 2467,
      "Ġsignific": 2468,
      "Ġnice": 2469,
      "ival": 2470,
      "Ġroad": 2471,
      "ires": 2472,
      "Ġversion": 2473,
      "Ġrespect": 2474,
      "Ġprovides": 2475,
      "ruction": 2476,
      "reme": 2477,
      "Ġplaying": 2478,
      "Ġcell": 2479,
      "Ġsimply": 2480,
      "Ġ..": 2481,
      "Ġviol": 2482,
      "Ġprotect": 2483,
      "Ġprograms": 2484,
      "Ġcook": 2485,
      "Ġrequired": 2486,
      "Ġassist": 2487,
      "ashington": 2488,
      "gu": 2489,
      "gle": 2490,
      "Ġlost": 2491,
      "OU": 2492,
      "ĠJanuary": 2493,
      "ĠJuly": 2494,
      "vent": 2495,
      "ĠSan": 2496,
      "Ġtraining": 2497,
      "ĠTV": 2498,
      "clus": 2499,
      "Ġdescrib": 2500,
      "ules": 2501,
      "Ġoriginal": 2502,
      "Ġhttp": 2503,
      "iter": 2504,
      "ino": 2505,
      "Ġtown": 2506,
      "medi": 2507,
      "Ġrole": 2508,
      "ĠAust": 2509,
      "Ġpain": 2510,
      "Ġgrad": 2511,
      "Ġpolitical": 2512,
      "icro": 2513,
      "Ġeducation": 2514,
      "lu": 2515,
      "ication": 2516,
      "Ġcannot": 2517,
      "ĠInc": 2518,
      "ests": 2519,
      "Ġcomment": 2520,
      "cle": 2521,
      "Ġanim": 2522,
      "Ġrecently": 2523,
      "Ġplayed": 2524,
      "ĠCalif": 2525,
      "ĠAdd": 2526,
      "Ġselect": 2527,
      "Ġconsum": 2528,
      "Ġtype": 2529,
      "ĠAM": 2530,
      "ĠSoc": 2531,
      "ĠCour": 2532,
      "oid": 2533,
      "Ġvot": 2534,
      "Ġclean": 2535,
      "Ġpolice": 2536,
      "60": 2537,
      "Ġdig": 2538,
      "ĠMon": 2539,
      "earch": 2540,
      "!!": 2541,
      "ĠSen": 2542,
      "Ġloss": 2543,
      "Ġkids": 2544,
      "Ġprep": 2545,
      "Ġtakes": 2546,
      "Ġboard": 2547,
      "St": 2548,
      "Ġstop": 2549,
      "ĠSer": 2550,
      "Ġtotal": 2551,
      "fact": 2552,
      "Ġnetwork": 2553,
      "ĠWashington": 2554,
      "Ġsimple": 2555,
      "Ġsize": 2556,
      "overed": 2557,
      "ese": 2558,
      "Ġcontrib": 2559,
      "ishing": 2560,
      "aker": 2561,
      "Ġwasn": 2562,
      "Ġmorning": 2563,
      "Ġchanges": 2564,
      "Ġinde": 2565,
      "ables": 2566,
      "ĠAssoci": 2567,
      "itional": 2568,
      "ĠTues": 2569,
      "Ġleaders": 2570,
      "atest": 2571,
      "Ġcirc": 2572,
      "Ġattend": 2573,
      "ky": 2574,
      "Ġwhite": 2575,
      "hib": 2576,
      "iful": 2577,
      "ĠArt": 2578,
      "attle": 2579,
      "Ġbott": 2580,
      "Ġhy": 2581,
      "ournal": 2582,
      "Ġinn": 2583,
      "ached": 2584,
      "Ġways": 2585,
      "Ġrecogn": 2586,
      "Ġmanagement": 2587,
      "Ġphone": 2588,
      "ouncil": 2589,
      "obile": 2590,
      "ety": 2591,
      "ĠRepublic": 2592,
      "eth": 2593,
      "ĠUs": 2594,
      "OT": 2595,
      "Ġ23": 2596,
      "Ġcover": 2597,
      "ĠHealth": 2598,
      "Ġpolicy": 2599,
      "Ġrisk": 2600,
      "Ġcareer": 2601,
      "Ġsecurity": 2602,
      "Ġincrease": 2603,
      "ham": 2604,
      "Ġwide": 2605,
      "Ġliving": 2606,
      "ming": 2607,
      "ĠThurs": 2608,
      "na": 2609,
      "Ġestab": 2610,
      "Ġoil": 2611,
      "aily": 2612,
      "lt": 2613,
      "Ġself": 2614,
      "ification": 2615,
      "itary": 2616,
      "Ġens": 2617,
      "oura": 2618,
      "Ġleave": 2619,
      "ĠNove": 2620,
      "Ġprint": 2621,
      "ĠFin": 2622,
      "Ġmeeting": 2623,
      "uge": 2624,
      "18": 2625,
      "Ġassoci": 2626,
      "Ġstra": 2627,
      "ĠDem": 2628,
      "Ġgoal": 2629,
      "Ġbegan": 2630,
      "Ġdefe": 2631,
      "chie": 2632,
      "Ġsense": 2633,
      "Ġplayer": 2634,
      "ĠThen": 2635,
      "Ġshall": 2636,
      "ĠTuesday": 2637,
      "Ġgen": 2638,
      "Ġmethod": 2639,
      "ĠPar": 2640,
      "Ġjud": 2641,
      "ĠVal": 2642,
      "14": 2643,
      "ĠFirst": 2644,
      "Ġdom": 2645,
      "ek": 2646,
      "ĠRed": 2647,
      "ny": 2648,
      "Ġsho": 2649,
      "Ġfight": 2650,
      "Ġcontract": 2651,
      "cast": 2652,
      "Ġcolor": 2653,
      "ĠPat": 2654,
      "Ġregard": 2655,
      "Ġround": 2656,
      "adem": 2657,
      "hern": 2658,
      "like": 2659,
      "ester": 2660,
      "ude": 2661,
      "....": 2662,
      "Ġsignificant": 2663,
      "ams": 2664,
      "Ġcampaign": 2665,
      "ĠChar": 2666,
      "Ġdest": 2667,
      "Ġfinancial": 2668,
      "Ġpopular": 2669,
      "Ġsuff": 2670,
      "Ġreported": 2671,
      "ession": 2672,
      "Ġopportunity": 2673,
      "face": 2674,
      "ada": 2675,
      "ĠOf": 2676,
      "ĠInt": 2677,
      "Ġchance": 2678,
      "Ġpric": 2679,
      "Ġsoftware": 2680,
      "Ġord": 2681,
      "ana": 2682,
      "ST": 2683,
      "Ġdecision": 2684,
      "anced": 2685,
      "ĠThursday": 2686,
      "Ġwonder": 2687,
      "Ġnatural": 2688,
      "hel": 2689,
      "aving": 2690,
      "Ġcreated": 2691,
      "Ġregular": 2692,
      "ville": 2693,
      "Ġdefin": 2694,
      "Ġsystems": 2695,
      "Ġcoll": 2696,
      "Ġreceive": 2697,
      "Ġbox": 2698,
      "ecut": 2699,
      "Ġvarious": 2700,
      "Ġpaper": 2701,
      "Ġlooks": 2702,
      "ĠWeb": 2703,
      "Ġrelease": 2704,
      "Ġlonger": 2705,
      "ĠTHE": 2706,
      "oke": 2707,
      "Ġcurrently": 2708,
      "erc": 2709,
      "Ġgave": 2710,
      "Ġtal": 2711,
      "Ġsqu": 2712,
      "Ġsaying": 2713,
      "ĠJe": 2714,
      "Ġrights": 2715,
      "Ġworked": 2716,
      "Ġmoment": 2717,
      "Ġincluded": 2718,
      "Ġexpress": 2719,
      "Ġengine": 2720,
      "Ġmat": 2721,
      "cember": 2722,
      "ael": 2723,
      "ĠWednes": 2724,
      "Ġ2007": 2725,
      "idge": 2726,
      "lier": 2727,
      "Ġill": 2728,
      "Ġhigher": 2729,
      "ĠTra": 2730,
      "Ġbooks": 2731,
      "Ġtable": 2732,
      "apt": 2733,
      "ruary": 2734,
      "Ġextra": 2735,
      "Ġmother": 2736,
      "kend": 2737,
      "Ġthemselves": 2738,
      "ĠDis": 2739,
      "Ġrelationship": 2740,
      "Ġrate": 2741,
      "Ġ,": 2742,
      "ĠSeptember": 2743,
      "Ġhimself": 2744,
      "based": 2745,
      "ĠDavid": 2746,
      "itter": 2747,
      "Ġattempt": 2748,
      "Ġsurpr": 2749,
      "rote": 2750,
      "Ġdate": 2751,
      "Ġreading": 2752,
      "Ġcand": 2753,
      "Ġinside": 2754,
      "dd": 2755,
      "cing": 2756,
      "Ġcelebr": 2757,
      "arget": 2758,
      "Ġproperty": 2759,
      "Ġstudent": 2760,
      "ĠOctober": 2761,
      "Ġsus": 2762,
      "ornia": 2763,
      "Ġfast": 2764,
      "Ġsummer": 2765,
      "icles": 2766,
      "oring": 2767,
      "Ġclick": 2768,
      "ĠNovember": 2769,
      "Ġcustomers": 2770,
      "Ġele": 2771,
      "Ġ40": 2772,
      "Ġhands": 2773,
      "Ġitself": 2774,
      "Ġworth": 2775,
      "ĠAugust": 2776,
      "ett": 2777,
      "ought": 2778,
      "uel": 2779,
      "Ġpurp": 2780,
      "ĠGer": 2781,
      "Ġfavorite": 2782,
      "ĠWednesday": 2783,
      "Ġinvestig": 2784,
      "ening": 2785,
      "Ġbud": 2786,
      "Ġappe": 2787,
      "mon": 2788,
      "Ġdesigned": 2789,
      "Ġblood": 2790,
      "Ġprivate": 2791,
      "ING": 2792,
      "ĠWell": 2793,
      "Ġfa": 2794,
      "ĠRead": 2795,
      "Ġlay": 2796,
      "ittee": 2797,
      "uth": 2798,
      "Ġdeg": 2799,
      "ĠJack": 2800,
      "izing": 2801,
      "Ġready": 2802,
      "rought": 2803,
      "ls": 2804,
      "Ġetc": 2805,
      "haps": 2806,
      "Ġquarter": 2807,
      "Ġbecame": 2808,
      "Ġwoman": 2809,
      "ĠWind": 2810,
      "Ġitems": 2811,
      "Ġgoes": 2812,
      "Ġcollect": 2813,
      "Ġsle": 2814,
      "Ġconnect": 2815,
      "now": 2816,
      "Ġlatest": 2817,
      "urg": 2818,
      "Ġhear": 2819,
      "Ġusers": 2820,
      "Ġcool": 2821,
      "16": 2822,
      "key": 2823,
      "sc": 2824,
      "Ġsales": 2825,
      "ĠCalifornia": 2826,
      "asons": 2827,
      "ĠDecember": 2828,
      "Ġclos": 2829,
      "Ġsold": 2830,
      "ĠMus": 2831,
      "ĠFebruary": 2832,
      "itution": 2833,
      "oud": 2834,
      "Ġcause": 2835,
      "ufact": 2836,
      "Ġneg": 2837,
      "Ġobject": 2838,
      "40": 2839,
      "ĠSw": 2840,
      "Ġpers": 2841,
      "astic": 2842,
      "Ġcopy": 2843,
      "ĠBlack": 2844,
      "Ġdeep": 2845,
      "Ġinvolved": 2846,
      "Ġlangu": 2847,
      "Ġthroughout": 2848,
      "Ġlives": 2849,
      "rect": 2850,
      "Ġusually": 2851,
      "ĠUp": 2852,
      "Ġled": 2853,
      "Ġboy": 2854,
      "ma": 2855,
      "aby": 2856,
      "Ġprim": 2857,
      "Ġexam": 2858,
      "sy": 2859,
      "Ġmovie": 2860,
      "ades": 2861,
      "Ġbrand": 2862,
      "Ġprior": 2863,
      "Ġimpact": 2864,
      "atory": 2865,
      "Ġri": 2866,
      "Ġcredit": 2867,
      "Ġinternational": 2868,
      "Ġhappy": 2869,
      "Ġdrive": 2870,
      "Ġarri": 2871,
      "Ġscreen": 2872,
      "Ġdrug": 2873,
      "Ġwritten": 2874,
      "Ġpull": 2875,
      "Ġdecided": 2876,
      "Ġmaterial": 2877,
      "Ġbroad": 2878,
      "Ġobs": 2879,
      "Ġcenter": 2880,
      "Ġwriting": 2881,
      "hood": 2882,
      "Ġcomputer": 2883,
      "ray": 2884,
      "Ġteac": 2885,
      "ĠBrit": 2886,
      "ĠAlso": 2887,
      "AM": 2888,
      "atives": 2889,
      "ĠStreet": 2890,
      "Ġproduction": 2891,
      "alt": 2892,
      "Ã©": 2893,
      "Ġconv": 2894,
      "Ġfresh": 2895,
      "ĠSci": 2896,
      "Ġadditional": 2897,
      "Ġinstead": 2898,
      "Ġmodel": 2899,
      "Ġpotential": 2900,
      "Ġgets": 2901,
      "Ġnorm": 2902,
      "Ġparents": 2903,
      "Ġremember": 2904,
      "ĠDirect": 2905,
      "Ġunique": 2906,
      "ivil": 2907,
      "name": 2908,
      "irth": 2909,
      "Ġadminist": 2910,
      "Ġachie": 2911,
      "ospital": 2912,
      "Ġnation": 2913,
      "ĠLa": 2914,
      "17": 2915,
      "Ġ197": 2916,
      "Ġexcept": 2917,
      "Ġheard": 2918,
      "ule": 2919,
      "Ġshot": 2920,
      "Ġprofessional": 2921,
      "Ġpan": 2922,
      "ĠiP": 2923,
      "ĠBu": 2924,
      "rab": 2925,
      "Ġterms": 2926,
      "Ġpublished": 2927,
      "Ġimmedi": 2928,
      "In": 2929,
      "where": 2930,
      "ĠCollege": 2931,
      "Ġcomments": 2932,
      "OM": 2933,
      "ux": 2934,
      "rown": 2935,
      "Ġcountries": 2936,
      "ĠPaul": 2937,
      "wood": 2938,
      "Ġexpected": 2939,
      "Ġbecom": 2940,
      "Ġstuff": 2941,
      "istic": 2942,
      "www": 2943,
      "Ġstyle": 2944,
      "iple": 2945,
      "Ġvia": 2946,
      "Ġfit": 2947,
      "Ġgroups": 2948,
      "ĠMost": 2949,
      "Ġmix": 2950,
      "ĠInternational": 2951,
      "Ġwrote": 2952,
      "ĠAN": 2953,
      "Ġfunction": 2954,
      "ĠCong": 2955,
      "Ġinterview": 2956,
      "Ġtouch": 2957,
      "illing": 2958,
      "Ġexperi": 2959,
      "Ġmedical": 2960,
      "ications": 2961,
      "Ġmass": 2962,
      "ĠCons": 2963,
      "Ġexact": 2964,
      "Ġdetails": 2965,
      "Ġwrong": 2966,
      "ĠFace": 2967,
      "str": 2968,
      "ĠAc": 2969,
      "Ġknew": 2970,
      "irit": 2971,
      "Ġdog": 2972,
      "mission": 2973,
      "Ġshoot": 2974,
      "Ġbeautiful": 2975,
      "ĠGener": 2976,
      "Ġgrowth": 2977,
      "Ġapplication": 2978,
      "ĠOther": 2979,
      "unt": 2980,
      "Ġdraw": 2981,
      "Ġlooked": 2982,
      "Ġx": 2983,
      "ford": 2984,
      "urance": 2985,
      "Ġquickly": 2986,
      "Ġmyself": 2987,
      "Ġpractice": 2988,
      "Ġsend": 2989,
      "ID": 2990,
      "ĠEvery": 2991,
      "Ġability": 2992,
      "Ġ28": 2993,
      "sec": 2994,
      "uted": 2995,
      "Ġmatch": 2996,
      "oom": 2997,
      "Ġmention": 2998,
      "light": 2999,
      "Ġturned": 3000,
      "Ġep": 3001,
      "Ġtreatment": 3002,
      "Ġreleased": 3003,
      "Ġcomfort": 3004,
      "Ġfans": 3005,
      "ĠNet": 3006,
      "Ġdiv": 3007,
      "Ġtour": 3008,
      "avy": 3009,
      "Ġrev": 3010,
      "LE": 3011,
      "ĠRom": 3012,
      "Ġfelt": 3013,
      "Ġfell": 3014,
      "Ġsen": 3015,
      "Ġsat": 3016,
      "ament": 3017,
      "Ġhol": 3018,
      "Ġdead": 3019,
      "Ġweekend": 3020,
      "field": 3021,
      "Ġcases": 3022,
      "ĠAut": 3023,
      "âĢĵ": 3024,
      "ĠWilliam": 3025,
      "cy": 3026,
      "ened": 3027,
      "Ġmid": 3028,
      "ĠSch": 3029,
      "Ġ26": 3030,
      "Ġlower": 3031,
      "Ġeconomic": 3032,
      "Ġaw": 3033,
      "Ġ27": 3034,
      "itute": 3035,
      "Ġimage": 3036,
      "erve": 3037,
      "Ġdise": 3038,
      "ĠAfric": 3039,
      "Ġfair": 3040,
      "Ġsubs": 3041,
      "Ġintrodu": 3042,
      "Ġdepend": 3043,
      "Ġsource": 3044,
      "zz": 3045,
      "ological": 3046,
      "Ġband": 3047,
      "ĠCourt": 3048,
      "Ġaffect": 3049,
      "rael": 3050,
      "Ġlevels": 3051,
      "ibrary": 3052,
      "Ġplans": 3053,
      "ĠEven": 3054,
      "aging": 3055,
      "Ġteams": 3056,
      "Ġimm": 3057,
      "ĠTex": 3058,
      "Ġrequest": 3059,
      "Ġaverage": 3060,
      "onse": 3061,
      "Ġhor": 3062,
      "urt": 3063,
      "Ġcup": 3064,
      "Ġspeak": 3065,
      "ĠIr": 3066,
      "Ġlab": 3067,
      "Ġdirector": 3068,
      "ida": 3069,
      "Ġknowledge": 3070,
      "Ġemer": 3071,
      "Ġsil": 3072,
      "oogle": 3073,
      "ĠAre": 3074,
      "Ġess": 3075,
      "isions": 3076,
      "aves": 3077,
      "Ġstandard": 3078,
      "ĠWhite": 3079,
      "inary": 3080,
      "Ġeyes": 3081,
      "ground": 3082,
      "Ġuser": 3083,
      "Ġwww": 3084,
      "pite": 3085,
      "Ġleading": 3086,
      "Ġveh": 3087,
      "Ġyourself": 3088,
      "Ġinteresting": 3089,
      "Ġfile": 3090,
      "Ġfederal": 3091,
      "Ġbillion": 3092,
      "airs": 3093,
      "Wh": 3094,
      "ago": 3095,
      "Ġtarget": 3096,
      "orge": 3097,
      "Ġsepar": 3098,
      "Ġnearly": 3099,
      "Ġrace": 3100,
      "ĠEast": 3101,
      "Ġmach": 3102,
      "ĠAny": 3103,
      "Ġactivities": 3104,
      "iction": 3105,
      "wise": 3106,
      "Ġbrought": 3107,
      "Ġguys": 3108,
      "Ġdecl": 3109,
      "Ġencoura": 3110,
      "bl": 3111,
      "ĠSim": 3112,
      "Ġbed": 3113,
      "band": 3114,
      "action": 3115,
      "Ġbal": 3116,
      "Ġstru": 3117,
      "mitted": 3118,
      "Ġsafe": 3119,
      "Ġsens": 3120,
      "vey": 3121,
      "Ġrelated": 3122,
      "Ġ+": 3123,
      "Ġpark": 3124,
      "Ġscore": 3125,
      "azing": 3126,
      "Ġslow": 3127,
      "Ġstarting": 3128,
      "body": 3129,
      "Ġsett": 3130,
      "Ġseven": 3131,
      "ipe": 3132,
      "aged": 3133,
      "Ġconditions": 3134,
      "aries": 3135,
      "Ġeight": 3136,
      "ĠEar": 3137,
      "anger": 3138,
      "Ġattention": 3139,
      "Ġdro": 3140,
      "Ġfine": 3141,
      "ĠInternet": 3142,
      "Ġhop": 3143,
      "Ġdocument": 3144,
      "mp": 3145,
      "Ġwall": 3146,
      "Ġcosts": 3147,
      "bed": 3148,
      "Ġanswer": 3149,
      "Ġson": 3150,
      "ĠLast": 3151,
      "sp": 3152,
      "Ġtried": 3153,
      "Ġbuilt": 3154,
      "ha": 3155,
      "Ġstates": 3156,
      "Ġbi": 3157,
      "Ġenter": 3158,
      "Ġfather": 3159,
      "Ġmilitary": 3160,
      "ĠAnge": 3161,
      "bum": 3162,
      "unk": 3163,
      "Ġcat": 3164,
      "Ġstruct": 3165,
      "uses": 3166,
      "Ġsection": 3167,
      "bit": 3168,
      "ara": 3169,
      "Ġsaf": 3170,
      "Ġdisplay": 3171,
      "ension": 3172,
      "Ġcoun": 3173,
      "99": 3174,
      "Ġsell": 3175,
      "Ġgiving": 3176,
      "ĠIsrael": 3177,
      "icient": 3178,
      "Ġconduct": 3179,
      "apan": 3180,
      "ĠMor": 3181,
      "ĠMichael": 3182,
      "urning": 3183,
      "yond": 3184,
      "su": 3185,
      "put": 3186,
      "Ġskin": 3187,
      "ounds": 3188,
      "Ġnote": 3189,
      "Ġdistrib": 3190,
      "ceed": 3191,
      "Ġclub": 3192,
      "omen": 3193,
      "ĠCr": 3194,
      "Ġannounced": 3195,
      "Ġcollection": 3196,
      "Ġwife": 3197,
      "Ġprojects": 3198,
      "aughter": 3199,
      "ica": 3200,
      "Ġnecessary": 3201,
      "24": 3202,
      "down": 3203,
      "isl": 3204,
      "ĠLet": 3205,
      "ĠLaw": 3206,
      "ĠFacebook": 3207,
      "Ġ2006": 3208,
      "Ġones": 3209,
      "Ġcollege": 3210,
      "cription": 3211,
      "ĠService": 3212,
      "ĠJames": 3213,
      "ondon": 3214,
      "ET": 3215,
      "ĠGreen": 3216,
      "ĠII": 3217,
      "idents": 3218,
      "Ġmanufact": 3219,
      "Ġut": 3220,
      "icks": 3221,
      "Ġrelig": 3222,
      "Ġcross": 3223,
      "Ġchoose": 3224,
      "Ġparts": 3225,
      "Ġglobal": 3226,
      "Ġchoice": 3227,
      "Ġevidence": 3228,
      "rel": 3229,
      "AP": 3230,
      "Ġautom": 3231,
      "Ġsometimes": 3232,
      "Ġthreat": 3233,
      "Ġhuge": 3234,
      "example": 3235,
      "itc": 3236,
      "acing": 3237,
      "Ġbank": 3238,
      "aught": 3239,
      "oses": 3240,
      "just": 3241,
      "Ġlegal": 3242,
      "Ġguy": 3243,
      "ĠBus": 3244,
      "Ġintegr": 3245,
      "Ġwrite": 3246,
      "ilies": 3247,
      "EC": 3248,
      "Ġarch": 3249,
      "ĠKing": 3250,
      "reng": 3251,
      "Ġspent": 3252,
      "Ġthinking": 3253,
      "BC": 3254,
      "ĠEnglish": 3255,
      "Ġreports": 3256,
      "ĠOver": 3257,
      "Ġdownload": 3258,
      "Ġlic": 3259,
      "Ġbudget": 3260,
      "Ġcapt": 3261,
      "Ġcamer": 3262,
      "Ġreb": 3263,
      "Ġtast": 3264,
      "Ġfeet": 3265,
      "ĠHall": 3266,
      "aches": 3267,
      "ĠGet": 3268,
      "Ġlear": 3269,
      "ĠTod": 3270,
      "22": 3271,
      "Ġneigh": 3272,
      "Ġorganization": 3273,
      "Ġpred": 3274,
      "Ġpiece": 3275,
      "enty": 3276,
      "Ġwhose": 3277,
      "ĠTexas": 3278,
      "Ġeasily": 3279,
      "Ġlo": 3280,
      "ĠOh": 3281,
      "Ġrespond": 3282,
      "Ġresources": 3283,
      "Ġprevent": 3284,
      "urb": 3285,
      "Ġinsp": 3286,
      "gar": 3287,
      "ĠSal": 3288,
      "Ġinflu": 3289,
      "ĠPal": 3290,
      "ĠTer": 3291,
      "idered": 3292,
      "ĠChina": 3293,
      "Ġeffort": 3294,
      "Ġtitle": 3295,
      "OS": 3296,
      "ding": 3297,
      "imately": 3298,
      "imum": 3299,
      "Ġdoor": 3300,
      "Ġfinally": 3301,
      "ĠOut": 3302,
      "reed": 3303,
      "ĠAir": 3304,
      "ns": 3305,
      "uate": 3306,
      "ĠAustral": 3307,
      "Ġmessage": 3308,
      "Ġpatients": 3309,
      "king": 3310,
      "He": 3311,
      "iding": 3312,
      "ĠSince": 3313,
      "Ġlocated": 3314,
      "ĠBill": 3315,
      "estern": 3316,
      "Ġaward": 3317,
      "rows": 3318,
      "ĠGoogle": 3319,
      "pri": 3320,
      "LL": 3321,
      "Ġgun": 3322,
      "ĠJapan": 3323,
      "iles": 3324,
      "ĠMag": 3325,
      "Ġsche": 3326,
      "Ġvariety": 3327,
      "ĠOffice": 3328,
      "Ġtick": 3329,
      "Ġdark": 3330,
      "Ġsafety": 3331,
      "Ġlimited": 3332,
      "Ġtalking": 3333,
      "ĠRich": 3334,
      "raz": 3335,
      "Ġoptions": 3336,
      "ysis": 3337,
      "Ġopin": 3338,
      "Ġapproach": 3339,
      "Ġgives": 3340,
      "Ġfeature": 3341,
      "Ġprevious": 3342,
      "ĠMany": 3343,
      "ipment": 3344,
      "Ġbag": 3345,
      "Ġapply": 3346,
      "ĠIN": 3347,
      "board": 3348,
      "Ġten": 3349,
      "ĠOp": 3350,
      "?\"": 3351,
      "Ġmaybe": 3352,
      "Ġsun": 3353,
      "Ġideas": 3354,
      "ĠDan": 3355,
      "ĠLondon": 3356,
      "Ġgreen": 3357,
      "arily": 3358,
      "Ġcoach": 3359,
      "Ġresponse": 3360,
      "ĠGovern": 3361,
      "enced": 3362,
      "ĠGroup": 3363,
      "Ġearlier": 3364,
      "ĠMet": 3365,
      "fl": 3366,
      "Ġlack": 3367,
      "Ġsave": 3368,
      "ĠDist": 3369,
      "cause": 3370,
      "ald": 3371,
      "Ġhour": 3372,
      "This": 3373,
      "Ġ.": 3374,
      "Ġcompletely": 3375,
      "Ġterm": 3376,
      "Ġweight": 3377,
      "Ġexcell": 3378,
      "Ġschools": 3379,
      "Ġsituation": 3380,
      "Ġhair": 3381,
      "Ġstories": 3382,
      "Ġrout": 3383,
      "iment": 3384,
      "vis": 3385,
      "Ġallows": 3386,
      "ĠChurch": 3387,
      "Ġcy": 3388,
      "Ġgrand": 3389,
      "Ġstatement": 3390,
      "Ġblock": 3391,
      "Ġdirectly": 3392,
      "ĠCongress": 3393,
      "Ġphotos": 3394,
      "Ġdoub": 3395,
      "iring": 3396,
      "uk": 3397,
      "):": 3398,
      "Ġstar": 3399,
      "ivity": 3400,
      "ĠDemocr": 3401,
      "Ġlanguage": 3402,
      "ION": 3403,
      "Ġregist": 3404,
      "Ġcommer": 3405,
      "anch": 3406,
      "Ġcode": 3407,
      "leg": 3408,
      "Ġdress": 3409,
      "Ġcarry": 3410,
      "wide": 3411,
      "Ġwants": 3412,
      "Ġvac": 3413,
      "ĠCouncil": 3414,
      "ĠGerman": 3415,
      "aly": 3416,
      "add": 3417,
      "ĠFlor": 3418,
      "Ġ29": 3419,
      "hold": 3420,
      "Ġalbum": 3421,
      "ampions": 3422,
      "ĠSpr": 3423,
      "ears": 3424,
      "nds": 3425,
      "ĠProgram": 3426,
      "ĠSuper": 3427,
      "ipping": 3428,
      "Ġforce": 3429,
      "itiz": 3430,
      "ĠSub": 3431,
      "Ġsubst": 3432,
      "ĠPlay": 3433,
      "ĠRober": 3434,
      "Ġcouldn": 3435,
      "ĠPublic": 3436,
      "Ġrock": 3437,
      "iant": 3438,
      "Ġmount": 3439,
      "venue": 3440,
      "Ġfeed": 3441,
      "Ġrestaur": 3442,
      "ault": 3443,
      "ĠHome": 3444,
      "Ġstraight": 3445,
      "Ġimpress": 3446,
      "Ġskills": 3447,
      "Ġlearning": 3448,
      "Ġscient": 3449,
      "Ġprices": 3450,
      "Ġstock": 3451,
      "itation": 3452,
      "mas": 3453,
      "Ġconsidered": 3454,
      "Ġbill": 3455,
      "Ġhistor": 3456,
      "Ġbeginning": 3457,
      "Ġofficials": 3458,
      "Ġallowed": 3459,
      "ĠBook": 3460,
      "duc": 3461,
      "amb": 3462,
      "Ġdoll": 3463,
      "Ġgas": 3464,
      "ĠAccording": 3465,
      "mail": 3466,
      "Ġflow": 3467,
      "Ġstreng": 3468,
      "ĠGreat": 3469,
      "Ġ@": 3470,
      "Ġsort": 3471,
      "Ġreve": 3472,
      "ĠProf": 3473,
      "ength": 3474,
      "Ġnature": 3475,
      "Ġorganiz": 3476,
      "Ġmis": 3477,
      "Ġbirth": 3478,
      "Ġinstru": 3479,
      "Ġsites": 3480,
      "23": 3481,
      "Ġ60": 3482,
      "rench": 3483,
      "Ġpicture": 3484,
      "ĠAssociation": 3485,
      "Ġimag": 3486,
      "Ġaccom": 3487,
      "Ġinterested": 3488,
      "iers": 3489,
      "ĠBig": 3490,
      "ibly": 3491,
      "Ġlif": 3492,
      "Ġeye": 3493,
      "80": 3494,
      "Ġprogress": 3495,
      "Ġhappened": 3496,
      "Ġwarm": 3497,
      "ĠWhy": 3498,
      "27": 3499,
      "inner": 3500,
      "ĠHot": 3501,
      "Ġcandid": 3502,
      "ĠTrans": 3503,
      "Ġmodern": 3504,
      "Ġpurchase": 3505,
      "Ġlocation": 3506,
      "Ġtrip": 3507,
      "ecutive": 3508,
      "ĠMac": 3509,
      "more": 3510,
      "lin": 3511,
      "osing": 3512,
      "ĠMart": 3513,
      "Ġoccur": 3514,
      "Ġextreme": 3515,
      "Ġnumbers": 3516,
      "ĠMem": 3517,
      "ĠFree": 3518,
      "iance": 3519,
      "itely": 3520,
      "ocks": 3521,
      "ĠCle": 3522,
      "Ġpromot": 3523,
      "arc": 3524,
      "osition": 3525,
      "ashion": 3526,
      "Ġprot": 3527,
      "Ġconsist": 3528,
      "ancy": 3529,
      "lim": 3530,
      "ĠMary": 3531,
      "iable": 3532,
      "Ġbenefits": 3533,
      "Ġ2005": 3534,
      "ĠServices": 3535,
      "Ġspeed": 3536,
      "Ġserious": 3537,
      "Ġgrowing": 3538,
      "oly": 3539,
      "Ġmoved": 3540,
      "Ġensure": 3541,
      "Ġple": 3542,
      "olf": 3543,
      "Ġappl": 3544,
      "You": 3545,
      "Ġeconomy": 3546,
      "ĠTom": 3547,
      "atever": 3548,
      "Ġreach": 3549,
      "ports": 3550,
      "ĠFound": 3551,
      "ĠSee": 3552,
      "rences": 3553,
      "unities": 3554,
      "Ġnamed": 3555,
      "ĠGeneral": 3556,
      "ĠBrown": 3557,
      "US": 3558,
      "Ġdaily": 3559,
      "Ġfamilies": 3560,
      "ĠWindows": 3561,
      "Ġproviding": 3562,
      "Ġdire": 3563,
      "Ġfix": 3564,
      "Ġimplement": 3565,
      "see": 3566,
      "ĠTechn": 3567,
      "Ġfirm": 3568,
      "45": 3569,
      "Ġmiddle": 3570,
      "Ġbeyond": 3571,
      "Ġhous": 3572,
      "ography": 3573,
      "Ġden": 3574,
      "Ġphysical": 3575,
      "ĠDel": 3576,
      "pm": 3577,
      "Ġamazing": 3578,
      "Ġpaid": 3579,
      "ĠInter": 3580,
      "ying": 3581,
      "Ġannual": 3582,
      "Ġtrade": 3583,
      "Ġposted": 3584,
      "ston": 3585,
      "Ġstage": 3586,
      "Ġconvers": 3587,
      "Ġcancer": 3588,
      "wor": 3589,
      "Ġwish": 3590,
      "ĠRec": 3591,
      "Ġcustomer": 3592,
      "sych": 3593,
      "het": 3594,
      "ato": 3595,
      "undred": 3596,
      "ĠChic": 3597,
      "ĠAlthough": 3598,
      "Ġpath": 3599,
      "Ġconference": 3600,
      "Ġadult": 3601,
      "Ġimages": 3602,
      "ĠThom": 3603,
      "rian": 3604,
      "Ġthous": 3605,
      "ager": 3606,
      "olic": 3607,
      "ĠAnn": 3608,
      "Ġdouble": 3609,
      "imin": 3610,
      "Ġver": 3611,
      "Ġcertainly": 3612,
      "Ġspot": 3613,
      "Ġruns": 3614,
      "Ġwait": 3615,
      "Ġofficial": 3616,
      "Ġdisease": 3617,
      "ares": 3618,
      "Ġregion": 3619,
      "asc": 3620,
      "ords": 3621,
      "Ġpartners": 3622,
      "ĠJer": 3623,
      "Ġoverall": 3624,
      "Ġsurv": 3625,
      "ĠSmith": 3626,
      "Ġcorrect": 3627,
      "ĠGood": 3628,
      "Ġsuccessful": 3629,
      "ocol": 3630,
      "urd": 3631,
      "Ġqual": 3632,
      "Ġdeveloped": 3633,
      "ĠSystem": 3634,
      "Ġplant": 3635,
      "ĠPhil": 3636,
      "Ġconne": 3637,
      "Ġphoto": 3638,
      "Ġpressure": 3639,
      "Ġalthough": 3640,
      "Ġbrother": 3641,
      "Ġefforts": 3642,
      "ĠApple": 3643,
      "Ġcharge": 3644,
      "sequ": 3645,
      "Ġserved": 3646,
      "useum": 3647,
      "ously": 3648,
      "Ġeffective": 3649,
      "Ġextend": 3650,
      "Ġmoving": 3651,
      "Ġjobs": 3652,
      "Ġapplications": 3653,
      "ĠBusiness": 3654,
      "net": 3655,
      "Ġult": 3656,
      "Ġfloor": 3657,
      "ady": 3658,
      "ĠPri": 3659,
      "Ġdefense": 3660,
      "Ġexactly": 3661,
      "Â®": 3662,
      "ĠBel": 3663,
      "Ġadvant": 3664,
      "ĠOF": 3665,
      "ĠMiss": 3666,
      "ĠOnce": 3667,
      "ĠChristian": 3668,
      "ĠBoard": 3669,
      "Ġindepend": 3670,
      "Ġdifference": 3671,
      "AD": 3672,
      "Ġtrust": 3673,
      "ĠAnt": 3674,
      "Ġhus": 3675,
      "ĠResearch": 3676,
      "Ġbottom": 3677,
      "Ġdemon": 3678,
      "Ġhighly": 3679,
      "Ġeat": 3680,
      "Ġserve": 3681,
      "Ġcivil": 3682,
      "Ġplaces": 3683,
      "rs": 3684,
      "29": 3685,
      "Ġaware": 3686,
      "Ġbaby": 3687,
      "ĠCommission": 3688,
      "Ġemployees": 3689,
      "Ġalone": 3690,
      "ĠFlorida": 3691,
      "?âĢĿ": 3692,
      "Ġregul": 3693,
      "hest": 3694,
      "Ġtools": 3695,
      "Ġgone": 3696,
      "Ġvoice": 3697,
      "Ġfeeling": 3698,
      "Ġparticularly": 3699,
      "ĠEduc": 3700,
      "ĠMicro": 3701,
      "force": 3702,
      "ipp": 3703,
      "Ġlik": 3704,
      "ĠReview": 3705,
      "Ġfinished": 3706,
      "akers": 3707,
      "ĠIndian": 3708,
      "ĠRob": 3709,
      "ĠSun": 3710,
      "Ġgold": 3711,
      "coming": 3712,
      "Ġdemand": 3713,
      "Ġdied": 3714,
      "ĠGold": 3715,
      "oul": 3716,
      "ĠPosted": 3717,
      "ĠEv": 3718,
      "Ġdisp": 3719,
      "Ġobv": 3720,
      "rast": 3721,
      "ado": 3722,
      "Ġappropri": 3723,
      "Ġavoid": 3724,
      "azine": 3725,
      "Ġpositive": 3726,
      "Ġded": 3727,
      "Ġspend": 3728,
      "order": 3729,
      "Ġchanged": 3730,
      "Ġfarm": 3731,
      "ĠRem": 3732,
      "Ġcomplex": 3733,
      "Ġfan": 3734,
      "Ġmobile": 3735,
      "Ġactivity": 3736,
      "Ġmiles": 3737,
      "izes": 3738,
      "Ġcondition": 3739,
      "ĠTwo": 3740,
      "Ġvote": 3741,
      "sey": 3742,
      "Ġwood": 3743,
      "ĠPort": 3744,
      "ĠClick": 3745,
      "aling": 3746,
      "ipped": 3747,
      "Ġroll": 3748,
      "Ġdream": 3749,
      "Ġhotel": 3750,
      "encies": 3751,
      "Ġprem": 3752,
      "iled": 3753,
      "35": 3754,
      "____": 3755,
      "Ġscience": 3756,
      "Ġdigital": 3757,
      "rem": 3758,
      "ils": 3759,
      "PS": 3760,
      "Ġdrink": 3761,
      "Ġremain": 3762,
      "ĠPress": 3763,
      "ĠBecause": 3764,
      "ĠPhot": 3765,
      "Ġplat": 3766,
      "Ġfrequ": 3767,
      "Ġren": 3768,
      "Ġimmediately": 3769,
      "Ġinform": 3770,
      "olute": 3771,
      "AA": 3772,
      "Ġge": 3773,
      "Ġpoor": 3774,
      "28": 3775,
      "Ġfollowed": 3776,
      "soft": 3777,
      "Ġheat": 3778,
      "26": 3779,
      "Ġcorpor": 3780,
      "Ġoption": 3781,
      "orrow": 3782,
      "Ġsom": 3783,
      "ĠChicago": 3784,
      "Ġchurch": 3785,
      "Ġeffects": 3786,
      "EO": 3787,
      "raw": 3788,
      "hips": 3789,
      "Ġuses": 3790,
      "Ġemb": 3791,
      "arden": 3792,
      "ĠEuropean": 3793,
      "Ġrules": 3794,
      "Ġmarketing": 3795,
      "ĠJes": 3796,
      "vin": 3797,
      "Ġwel": 3798,
      "Ġdisapp": 3799,
      "ech": 3800,
      "change": 3801,
      "Ġperhaps": 3802,
      "IV": 3803,
      "iling": 3804,
      "Ġbehav": 3805,
      "Ġresponsible": 3806,
      "ĠJew": 3807,
      "vest": 3808,
      "Ġbeat": 3809,
      "Ġoffered": 3810,
      "Ġmultiple": 3811,
      "Ġund": 3812,
      "Ġtypes": 3813,
      "ĠBay": 3814,
      "Ġdevice": 3815,
      "rief": 3816,
      "umn": 3817,
      "ĠAbout": 3818,
      "Ġaltern": 3819,
      "reci": 3820,
      "Ġlines": 3821,
      "Ġhelped": 3822,
      "ĠMod": 3823,
      "Ġwouldn": 3824,
      "Ġlargest": 3825,
      "Ġtraditional": 3826,
      "mark": 3827,
      "Ġsleep": 3828,
      "omb": 3829,
      "ĠToday": 3830,
      "----": 3831,
      "ico": 3832,
      "ĠSl": 3833,
      "Ġconcept": 3834,
      "inn": 3835,
      "Ġplanning": 3836,
      "iller": 3837,
      "Ġacqu": 3838,
      "Ġshown": 3839,
      "Ġequipment": 3840,
      "Ġkept": 3841,
      "Ġincreasing": 3842,
      "Ġdetermin": 3843,
      "ari": 3844,
      "inger": 3845,
      "aled": 3846,
      "Ġprec": 3847,
      "Ġrefer": 3848,
      "Ġhundred": 3849,
      "ĠUK": 3850,
      "nded": 3851,
      "ander": 3852,
      "ĠLike": 3853,
      "EL": 3854,
      "oms": 3855,
      "men": 3856,
      "ĠTwitter": 3857,
      "istan": 3858,
      "Ġcapital": 3859,
      "set": 3860,
      "ffic": 3861,
      "Ġspirit": 3862,
      "ĠDevelop": 3863,
      "Ġowners": 3864,
      "Ch": 3865,
      "Ġhaven": 3866,
      "Ġculture": 3867,
      "Ġpassed": 3868,
      "ĠBer": 3869,
      "icip": 3870,
      "unte": 3871,
      "ĠRet": 3872,
      "ĠInformation": 3873,
      "Ġlegisl": 3874,
      "OL": 3875,
      "Ġfully": 3876,
      "owl": 3877,
      "Ġmaterials": 3878,
      "Ġslight": 3879,
      "Ġpen": 3880,
      "ĠEach": 3881,
      "Ġpet": 3882,
      "erved": 3883,
      "ki": 3884,
      "\",": 3885,
      "ĠPeople": 3886,
      "ota": 3887,
      "Ġexcellent": 3888,
      "ĠClass": 3889,
      "ĠRock": 3890,
      "Ġtrou": 3891,
      "ĠLoc": 3892,
      "house": 3893,
      "CC": 3894,
      "rey": 3895,
      "Ġincreased": 3896,
      "Ġfem": 3897,
      "ĠRel": 3898,
      "Ġhusband": 3899,
      "Ġtoward": 3900,
      "Ġcontinued": 3901,
      "ona": 3902,
      "Ġgoals": 3903,
      "ĠST": 3904,
      "iation": 3905,
      "oe": 3906,
      "ĠSam": 3907,
      "Ġargu": 3908,
      "Ġpurpose": 3909,
      "ĠFranc": 3910,
      "ĠTy": 3911,
      "Ġpow": 3912,
      "Ġrates": 3913,
      "Ġmanager": 3914,
      "chan": 3915,
      "Ġfiles": 3916,
      "Ġconc": 3917,
      "ĠPR": 3918,
      "Ġstrugg": 3919,
      "ĠDirector": 3920,
      "ĠCompany": 3921,
      "21": 3922,
      "Ġtemper": 3923,
      "bon": 3924,
      "Ġindic": 3925,
      "Ġahead": 3926,
      "Ġopportunities": 3927,
      "ĠLeague": 3928,
      "ĠCanada": 3929,
      "Ġcateg": 3930,
      "Ġdegree": 3931,
      "ĠAv": 3932,
      "ruit": 3933,
      "Ġopening": 3934,
      "Ġspring": 3935,
      "dom": 3936,
      "ĠHist": 3937,
      "apter": 3938,
      "Ġblue": 3939,
      "ĠTop": 3940,
      "Ġaren": 3941,
      "Ġsenior": 3942,
      "Ġcalls": 3943,
      "hens": 3944,
      "ĠBritish": 3945,
      "ĠLou": 3946,
      "ĠIS": 3947,
      "mm": 3948,
      "well": 3949,
      "uled": 3950,
      "Ġletter": 3951,
      "opped": 3952,
      "Ġcast": 3953,
      "Ġexerc": 3954,
      "Ġ=": 3955,
      "anta": 3956,
      "atab": 3957,
      "Ġsports": 3958,
      "Ġble": 3959,
      "ĠâĢ¦": 3960,
      "Ġorigin": 3961,
      "ĠMike": 3962,
      "Ġbasis": 3963,
      "Ġ31": 3964,
      "Ġliter": 3965,
      "ĠFrench": 3966,
      "Ġobt": 3967,
      "ĠPet": 3968,
      "Ġrepe": 3969,
      "Ġguess": 3970,
      "ĠSur": 3971,
      "Ġcert": 3972,
      "Ġadvert": 3973,
      "Ġjoin": 3974,
      "arant": 3975,
      "ĠTimes": 3976,
      "Ġton": 3977,
      "Ġindividuals": 3978,
      "Ġfaith": 3979,
      "Ġnormal": 3980,
      "que": 3981,
      "Ġdry": 3982,
      "pa": 3983,
      "Ġspending": 3984,
      "Ġtowards": 3985,
      "ĠCommittee": 3986,
      "Ġbeg": 3987,
      "iny": 3988,
      "Ġgift": 3989,
      "Ġhospital": 3990,
      "ĠChristmas": 3991,
      "Ġactive": 3992,
      "Ġpattern": 3993,
      "Ġbusinesses": 3994,
      "lying": 3995,
      "ancing": 3996,
      "Ġinsurance": 3997,
      "ube": 3998,
      "antly": 3999,
      "Ġbenefit": 4000,
      "Ġachieve": 4001,
      "Ġcamera": 4002,
      "Ġfra": 4003,
      "Ġdaughter": 4004,
      "ĠBen": 4005,
      "Ġfat": 4006,
      "Ġdamage": 4007,
      "Ġ2004": 4008,
      "Ġnotice": 4009,
      "Ġstudies": 4010,
      "ales": 4011,
      "Ġanaly": 4012,
      "Ġpages": 4013,
      "riage": 4014,
      "Ġfourth": 4015,
      "Ġdefinitely": 4016,
      "ĠMatt": 4017,
      "Ġcharacters": 4018,
      "Ġreasons": 4019,
      "Ġanalysis": 4020,
      "DA": 4021,
      "Ġseeing": 4022,
      "Ġmeasure": 4023,
      "Ġfigure": 4024,
      "ĠClub": 4025,
      "Ġwild": 4026,
      "aven": 4027,
      "Ġcold": 4028,
      "amm": 4029,
      "ĠInstitute": 4030,
      "ĠRiver": 4031,
      "33": 4032,
      "ivery": 4033,
      "ĠAmericans": 4034,
      "Ġcommercial": 4035,
      "Ġoccas": 4036,
      "Ġreflect": 4037,
      "ĠDuring": 4038,
      "lished": 4039,
      "ĠRoad": 4040,
      "ĠVir": 4041,
      "Ġleader": 4042,
      "Ġcitiz": 4043,
      "Ġpros": 4044,
      "Ġsale": 4045,
      "ĠCamp": 4046,
      "ims": 4047,
      "Ġpictures": 4048,
      "Ġload": 4049,
      "berg": 4050,
      "ĠChild": 4051,
      "ĠÂ©": 4052,
      "Ġmer": 4053,
      "Ġmeaning": 4054,
      "ĠUnder": 4055,
      "ĠVis": 4056,
      "ĠIsland": 4057,
      "ervation": 4058,
      "ĠCarol": 4059,
      "Ġwat": 4060,
      "osh": 4061,
      "rees": 4062,
      "ĠCheck": 4063,
      "Ġlength": 4064,
      "Ġsolution": 4065,
      "Ġglass": 4066,
      "Ġfootball": 4067,
      "ĠHum": 4068,
      "Ġcreating": 4069,
      "Ġknows": 4070,
      "ĠBest": 4071,
      "ĠThanks": 4072,
      "Ġprefer": 4073,
      "Ġbiggest": 4074,
      "ken": 4075,
      "levision": 4076,
      "Ġnames": 4077,
      "Ġfinish": 4078,
      "Ġsweet": 4079,
      "Ġlarger": 4080,
      "agn": 4081,
      "Ġ196": 4082,
      "ĠScott": 4083,
      "Ġinnov": 4084,
      "reak": 4085,
      "itude": 4086,
      "Ġgreater": 4087,
      "rig": 4088,
      "ĠFam": 4089,
      "Ġreduce": 4090,
      "outhern": 4091,
      "Ġhealthy": 4092,
      "iced": 4093,
      "ĠJim": 4094,
      "Ġnut": 4095,
      "Ġwonderful": 4096,
      "za": 4097,
      "Ġseemed": 4098,
      "ronic": 4099,
      "Ġentertain": 4100,
      "Ġunderstanding": 4101,
      "Ġlearned": 4102,
      "itness": 4103,
      "Ġappreci": 4104,
      "mine": 4105,
      "ffee": 4106,
      "75": 4107,
      "Ġsecret": 4108,
      "Ġrent": 4109,
      "rial": 4110,
      "inter": 4111,
      "Ġthrow": 4112,
      "Ġchallenge": 4113,
      "RA": 4114,
      "IG": 4115,
      "ĠRuss": 4116,
      "ĠMcC": 4117,
      "ĠStar": 4118,
      "Ġpeace": 4119,
      "TS": 4120,
      "Ġexpand": 4121,
      "Ġspread": 4122,
      "ĠPC": 4123,
      "Ġabsolute": 4124,
      "ĠTime": 4125,
      "Ġanti": 4126,
      "Ġcolle": 4127,
      "using": 4128,
      "Ġsust": 4129,
      "hol": 4130,
      "Ġborn": 4131,
      "itz": 4132,
      "Ġproced": 4133,
      "amic": 4134,
      "Ġaccur": 4135,
      "Ġpopulation": 4136,
      "Ġhelps": 4137,
      ");": 4138,
      "ĠDec": 4139,
      "Ġmail": 4140,
      "ĠGeorge": 4141,
      "ij": 4142,
      "Ġgrant": 4143,
      "Ġkilled": 4144,
      "OP": 4145,
      "ĠSol": 4146,
      "ustr": 4147,
      "ĠBank": 4148,
      "ses": 4149,
      "Ġgirls": 4150,
      "ooper": 4151,
      "place": 4152,
      "ĠChris": 4153,
      "Ġonto": 4154,
      "ores": 4155,
      "Ġdescribed": 4156,
      "ĠWhe": 4157,
      "Ġworkers": 4158,
      "rowd": 4159,
      "istry": 4160,
      "IM": 4161,
      "Ġjump": 4162,
      "Ġdoctor": 4163,
      "ĠMex": 4164,
      "Ġpaint": 4165,
      "Ġbasic": 4166,
      "igned": 4167,
      "ĠWho": 4168,
      "yan": 4169,
      "Ġsociety": 4170,
      "Ġfab": 4171,
      "ĠWork": 4172,
      "Ġwhatever": 4173,
      "Ġplatform": 4174,
      "ĠDiv": 4175,
      "Ġconsult": 4176,
      "Ġreplace": 4177,
      "Ġcommit": 4178,
      "itar": 4179,
      "ĠAlex": 4180,
      "uty": 4181,
      "Ġtruth": 4182,
      "Ġpoll": 4183,
      "Ġadvice": 4184,
      "itable": 4185,
      "ĠMil": 4186,
      "ĠBack": 4187,
      "Ġadvantage": 4188,
      "Ġsomew": 4189,
      "Ġmovement": 4190,
      "isco": 4191,
      "Ġvirt": 4192,
      "roy": 4193,
      "phone": 4194,
      "Ġrelative": 4195,
      "Ġgar": 4196,
      "ĠEducation": 4197,
      "Ġshowed": 4198,
      "omin": 4199,
      "ĠCur": 4200,
      "rupt": 4201,
      "Ġ<": 4202,
      "ĠAnother": 4203,
      "ĠSum": 4204,
      "Ġcontain": 4205,
      "Ġscene": 4206,
      "Ġwine": 4207,
      "istics": 4208,
      "Ġremains": 4209,
      "Ġhomes": 4210,
      "ucky": 4211,
      "tr": 4212,
      "ulf": 4213,
      "Ġadop": 4214,
      "Ġtom": 4215,
      "ĠUN": 4216,
      "70": 4217,
      "Ġsetting": 4218,
      "Ġexhib": 4219,
      "Ġstrateg": 4220,
      "friend": 4221,
      "isf": 4222,
      "Ġwinning": 4223,
      "osure": 4224,
      "Ġgra": 4225,
      "Ġpowerful": 4226,
      "Ġweather": 4227,
      "ĠUSA": 4228,
      "Ġtransfer": 4229,
      "Ġappears": 4230,
      "Ġloved": 4231,
      "Ġassess": 4232,
      "Ġtruly": 4233,
      "ĠSupp": 4234,
      "Ġforeign": 4235,
      "anging": 4236,
      "ĠView": 4237,
      "Ġdeliver": 4238,
      "lor": 4239,
      "ĠWil": 4240,
      "ĠMount": 4241,
      "pects": 4242,
      "ici": 4243,
      "Ġlinks": 4244,
      "Ġ80": 4245,
      "Ġcentury": 4246,
      "ĠRobert": 4247,
      "ĠEngland": 4248,
      "Ġconstruction": 4249,
      "Ġsurround": 4250,
      "Ġassociated": 4251,
      "ĠKn": 4252,
      "Ġrecords": 4253,
      "Ġorganizations": 4254,
      "Ġwed": 4255,
      "ĠLife": 4256,
      "Ġarrest": 4257,
      "ĠLook": 4258,
      "Ġproduce": 4259,
      "Ġcru": 4260,
      "Ġweap": 4261,
      "unately": 4262,
      "Ġearth": 4263,
      "Ġplaced": 4264,
      "ĠCentral": 4265,
      "Ġcompetition": 4266,
      "500": 4267,
      "point": 4268,
      "Ġstation": 4269,
      "Ġappropriate": 4270,
      "icine": 4271,
      "Ġemot": 4272,
      "ĠWall": 4273,
      "ĠArch": 4274,
      "ordin": 4275,
      "ĠMicrosoft": 4276,
      "term": 4277,
      "Ġproduced": 4278,
      "Ġmission": 4279,
      "gal": 4280,
      "Ġevening": 4281,
      "esterday": 4282,
      "Ġopened": 4283,
      "Ġsolid": 4284,
      "BS": 4285,
      "Ġchem": 4286,
      "Ġclot": 4287,
      "100": 4288,
      "Ġrank": 4289,
      "Ġheavy": 4290,
      "Ġeasier": 4291,
      "Ġthank": 4292,
      "OW": 4293,
      "Ġjournal": 4294,
      "Ġcompared": 4295,
      "ĠUse": 4296,
      "ĠSk": 4297,
      "Ġneighbor": 4298,
      "Ġplus": 4299,
      "Ġselection": 4300,
      "asy": 4301,
      "Ġclin": 4302,
      "Ġowner": 4303,
      "PA": 4304,
      "miss": 4305,
      "ented": 4306,
      "Ġarr": 4307,
      "estival": 4308,
      "ĠLos": 4309,
      "Ġnine": 4310,
      "gen": 4311,
      "press": 4312,
      "ĠJeff": 4313,
      "Ġgenerally": 4314,
      "roud": 4315,
      "Ġpieces": 4316,
      "Ġradio": 4317,
      "Ġended": 4318,
      "Ġnove": 4319,
      "itors": 4320,
      "Ġopinion": 4321,
      "win": 4322,
      "igan": 4323,
      "Ġacadem": 4324,
      "Ġcontinu": 4325,
      "ĠMad": 4326,
      "Ġclaims": 4327,
      "ym": 4328,
      "Ġlots": 4329,
      "Ġfashion": 4330,
      "annel": 4331,
      "ooth": 4332,
      "ĠScience": 4333,
      "Ġmachine": 4334,
      "ae": 4335,
      "Ġir": 4336,
      "edy": 4337,
      "Ġbrain": 4338,
      "Ġolder": 4339,
      "ĠJud": 4340,
      "ss": 4341,
      "Ġenh": 4342,
      "ifying": 4343,
      "Ġvehicle": 4344,
      "Ġpresented": 4345,
      "Ġoffering": 4346,
      "Re": 4347,
      "last": 4348,
      "ĠIndia": 4349,
      "ĠFore": 4350,
      "Ġunit": 4351,
      "Ġyards": 4352,
      "ĠLord": 4353,
      "IA": 4354,
      "Ġ2000": 4355,
      "BA": 4356,
      "IL": 4357,
      "Ġinvestment": 4358,
      "Ġ35": 4359,
      "Ġclients": 4360,
      "Ġadjust": 4361,
      "Ġestablished": 4362,
      "Ġdemonstr": 4363,
      "Ġrequirements": 4364,
      "cript": 4365,
      "ĠMarket": 4366,
      "arks": 4367,
      "inese": 4368,
      "ĠVol": 4369,
      "Ġsched": 4370,
      "ucle": 4371,
      "Ġwatching": 4372,
      "If": 4373,
      "Ġwear": 4374,
      "Ġcompon": 4375,
      "Ġcontinues": 4376,
      "Ġdrop": 4377,
      "olly": 4378,
      "Ġprimary": 4379,
      "ĠJesus": 4380,
      "Ġmist": 4381,
      "Ġlaws": 4382,
      "ĠÂ£": 4383,
      "Ġsurface": 4384,
      "Ġexpert": 4385,
      "ĠJoe": 4386,
      "gl": 4387,
      "rely": 4388,
      "ags": 4389,
      "ategy": 4390,
      "ĠHel": 4391,
      "Ġ2003": 4392,
      "Ġretail": 4393,
      "ĠDistrict": 4394,
      "Ġcrowd": 4395,
      "ĠFrank": 4396,
      "Ġbattle": 4397,
      "ulated": 4398,
      "Ġotherwise": 4399,
      "ĠDet": 4400,
      "ĠPlan": 4401,
      "Ġclosed": 4402,
      "90": 4403,
      "ĠCare": 4404,
      "Ġsmart": 4405,
      "ĠLake": 4406,
      "po": 4407,
      "ĠCopy": 4408,
      "ĠDown": 4409,
      "Ġreached": 4410,
      "Ġdepartment": 4411,
      "atically": 4412,
      "ĠTim": 4413,
      "itect": 4414,
      "oices": 4415,
      "ĠFind": 4416,
      "Ġelection": 4417,
      "Ġstick": 4418,
      "Ġappoint": 4419,
      "Ġdiscussion": 4420,
      "ero": 4421,
      "ĠTO": 4422,
      "Ġstreet": 4423,
      "Ġtrain": 4424,
      "ĠVirgin": 4425,
      "Ġmax": 4426,
      "ĠAND": 4427,
      "fit": 4428,
      "Ġiniti": 4429,
      "ĠRE": 4430,
      "ĠMer": 4431,
      "orial": 4432,
      "Ġstandards": 4433,
      "Ġbreat": 4434,
      "IP": 4435,
      "95": 4436,
      "44": 4437,
      "Ġdanger": 4438,
      "oma": 4439,
      "Ġshop": 4440,
      "Ġbought": 4441,
      "Ġstatus": 4442,
      "Ġcritical": 4443,
      "Ġattract": 4444,
      "amin": 4445,
      "ĠCD": 4446,
      "ette": 4447,
      "gment": 4448,
      "Ġprotection": 4449,
      "Ġarm": 4450,
      "ĠDV": 4451,
      "ĠBoth": 4452,
      "ĠEnter": 4453,
      "ĠCommunity": 4454,
      "noon": 4455,
      "ĠCath": 4456,
      "Ġvill": 4457,
      "Ġvolunte": 4458,
      "okes": 4459,
      "Ġhighest": 4460,
      "box": 4461,
      "Ġcatch": 4462,
      "Ġmill": 4463,
      "ius": 4464,
      "Ġpair": 4465,
      "Ġregarding": 4466,
      "gers": 4467,
      "Ġestablish": 4468,
      "Ġdevices": 4469,
      "dule": 4470,
      "Ġmeant": 4471,
      "Ġexisting": 4472,
      "Ġpatient": 4473,
      "orter": 4474,
      "ĠVer": 4475,
      "Ġclearly": 4476,
      "semb": 4477,
      "Ġkick": 4478,
      "Ġhelping": 4479,
      "ĠNov": 4480,
      "Ġagency": 4481,
      "ĠCap": 4482,
      "ĠMo": 4483,
      "ĠGovernment": 4484,
      "ĠFood": 4485,
      "Ġice": 4486,
      "Ġbask": 4487,
      "Ġfant": 4488,
      "outs": 4489,
      "Ġeval": 4490,
      "udd": 4491,
      "Ġactual": 4492,
      "ĠSocial": 4493,
      "ĠYear": 4494,
      "ĠMal": 4495,
      "standing": 4496,
      "ĠPolice": 4497,
      "state": 4498,
      "Ġextremely": 4499,
      "ĠIT": 4500,
      "Ġstrength": 4501,
      "look": 4502,
      "Ġtransport": 4503,
      "ties": 4504,
      "Ġ90": 4505,
      "Ġcompleted": 4506,
      "Ġexclus": 4507,
      "Ġtrial": 4508,
      "ĠJohnson": 4509,
      "ĠMedia": 4510,
      "part": 4511,
      "ads": 4512,
      "Ġcash": 4513,
      "ĠUnion": 4514,
      "Ġreturned": 4515,
      "iel": 4516,
      "Ġpolic": 4517,
      "ĠFire": 4518,
      "Ġforum": 4519,
      "Ġdriving": 4520,
      "Ġwaiting": 4521,
      "Ġviews": 4522,
      "ĠMass": 4523,
      "ĠHill": 4524,
      "hy": 4525,
      "Ġestim": 4526,
      "ĠRepublican": 4527,
      "porary": 4528,
      "Ġfear": 4529,
      "ĠBob": 4530,
      "Ġ70": 4531,
      "ĠSpecial": 4532,
      "Ġfif": 4533,
      "acity": 4534,
      "Ġsnow": 4535,
      "Ġlose": 4536,
      "Ġdespite": 4537,
      "Ġstarts": 4538,
      "Ġhar": 4539,
      "Ġdistrict": 4540,
      "Ġthanks": 4541,
      "Ġsigned": 4542,
      "Ġraised": 4543,
      "Ġaudience": 4544,
      "Ġleaving": 4545,
      "ugg": 4546,
      "ĠSteve": 4547,
      "Ġmechan": 4548,
      "ĠBur": 4549,
      "orage": 4550,
      "ĠWood": 4551,
      "oves": 4552,
      "antic": 4553,
      "Ġelectric": 4554,
      "Ġcaused": 4555,
      "Ġign": 4556,
      "cks": 4557,
      "Ġwhom": 4558,
      "Ġnor": 4559,
      "Ġparties": 4560,
      "gn": 4561,
      "ĠCall": 4562,
      "Ġshowing": 4563,
      "Ġrich": 4564,
      "enses": 4565,
      "Ġdirection": 4566,
      "Ġcovered": 4567,
      "ios": 4568,
      "Ġpartner": 4569,
      "hone": 4570,
      "Ġpsych": 4571,
      "ĠBlue": 4572,
      "Ġreality": 4573,
      "Ġsem": 4574,
      "vention": 4575,
      "kn": 4576,
      "Ġincome": 4577,
      "Ġconnection": 4578,
      "Ġplays": 4579,
      "Ġrob": 4580,
      "Ġmajority": 4581,
      "Ġfinding": 4582,
      "Ġcris": 4583,
      "55": 4584,
      "Ġmemory": 4585,
      "Ġscen": 4586,
      "atabase": 4587,
      "ĠAtt": 4588,
      "Ġscored": 4589,
      "Ġresidents": 4590,
      "Ġcentral": 4591,
      "entially": 4592,
      "ENT": 4593,
      "ĠYes": 4594,
      "Ġsteps": 4595,
      "Ġthousands": 4596,
      "ĠFoundation": 4597,
      "Ġunless": 4598,
      "**": 4599,
      "UR": 4600,
      "Ġfol": 4601,
      "ologies": 4602,
      "la": 4603,
      "ĠSand": 4604,
      "36": 4605,
      "ĠShow": 4606,
      "Ġcommunities": 4607,
      "ĠProfess": 4608,
      "Ġship": 4609,
      "ĠStr": 4610,
      "Ġbrief": 4611,
      "ĠVe": 4612,
      "Ġstress": 4613,
      "CH": 4614,
      "ĠAngeles": 4615,
      "oving": 4616,
      "ĠTor": 4617,
      "Ġlabor": 4618,
      "ĠOk": 4619,
      "Ġsch": 4620,
      "ĠSa": 4621,
      "Ġfunds": 4622,
      "but": 4623,
      "Ġtelevision": 4624,
      "Ġadministration": 4625,
      "oop": 4626,
      "ĠOpen": 4627,
      "Ġhappens": 4628,
      "Ġuseful": 4629,
      "ĠHam": 4630,
      "Ġing": 4631,
      "isher": 4632,
      "no": 4633,
      "ĠPower": 4634,
      "ĠTheir": 4635,
      "ĠAtl": 4636,
      "Ġepis": 4637,
      "Ġshut": 4638,
      "Ġcomfortable": 4639,
      "ĠJournal": 4640,
      "Ġoperations": 4641,
      "oston": 4642,
      "Ġrap": 4643,
      "Ġvictory": 4644,
      "iest": 4645,
      "Ġchair": 4646,
      "FL": 4647,
      "Ġcards": 4648,
      "iverse": 4649,
      "rd": 4650,
      "itchen": 4651,
      "Ġtherefore": 4652,
      "Ġbackground": 4653,
      "Ġleague": 4654,
      "Ġkid": 4655,
      "Ġremind": 4656,
      "2013": 4657,
      "Ġthus": 4658,
      "aming": 4659,
      "Ġcounter": 4660,
      "Ġrequires": 4661,
      ".'": 4662,
      "ulate": 4663,
      "Ġwilling": 4664,
      "ĠÂ»": 4665,
      "pective": 4666,
      "ĠForm": 4667,
      "ocked": 4668,
      "Ġlimit": 4669,
      "hem": 4670,
      "Ġfish": 4671,
      "ĠChinese": 4672,
      "gency": 4673,
      "ĠIra": 4674,
      "!\"": 4675,
      "Ġeth": 4676,
      "ĠRad": 4677,
      "Ġdeveloping": 4678,
      "Ġhearing": 4679,
      "Ġmulti": 4680,
      "Ġsupply": 4681,
      "ĠSil": 4682,
      "ĠDesign": 4683,
      "cape": 4684,
      "Ġbur": 4685,
      "Ġapparent": 4686,
      "how": 4687,
      "ception": 4688,
      "Ġsession": 4689,
      "works": 4690,
      "text": 4691,
      "orney": 4692,
      "apers": 4693,
      "Ġdelivery": 4694,
      "kins": 4695,
      "asure": 4696,
      "Ġsuppl": 4697,
      "ĠNY": 4698,
      "gery": 4699,
      "Ġcorner": 4700,
      "Ġath": 4701,
      "Ġselected": 4702,
      "Ġcollabor": 4703,
      "Ġagreement": 4704,
      "Ġsources": 4705,
      "Ġadding": 4706,
      "reek": 4707,
      "Ġdraft": 4708,
      "Ġprofession": 4709,
      "Ġminor": 4710,
      "ĠJones": 4711,
      "Ġflu": 4712,
      "ĠAustralia": 4713,
      "icken": 4714,
      "EM": 4715,
      "Ġchief": 4716,
      "active": 4717,
      "Ġgraph": 4718,
      "Ġafternoon": 4719,
      "ĠThomas": 4720,
      "ste": 4721,
      "38": 4722,
      "Ġmentioned": 4723,
      "ĠBet": 4724,
      "ĠJackson": 4725,
      "ĠLove": 4726,
      "SP": 4727,
      "Ġguarant": 4728,
      "ĠProject": 4729,
      "Ġlisted": 4730,
      "Ġmaster": 4731,
      "Ġminute": 4732,
      "ĠRichard": 4733,
      "ĠSociety": 4734,
      "SA": 4735,
      "Ġputting": 4736,
      "Ġanimals": 4737,
      "Ġur": 4738,
      "Ġnotes": 4739,
      "Ġbatter": 4740,
      "cher": 4741,
      "Ġliber": 4742,
      "Ġrule": 4743,
      "bert": 4744,
      "Ġbecomes": 4745,
      "imb": 4746,
      "idel": 4747,
      "Ġsolutions": 4748,
      "Ġnoted": 4749,
      "ĠIll": 4750,
      "Ġproud": 4751,
      "Ġwinter": 4752,
      "Ġmonitor": 4753,
      "Ġspecies": 4754,
      "Ġtraffic": 4755,
      "Ġran": 4756,
      "ishes": 4757,
      "Ġforms": 4758,
      "!)": 4759,
      "ĠColor": 4760,
      "Ġclasses": 4761,
      "Ġtough": 4762,
      "ĠHol": 4763,
      "Ġtend": 4764,
      "Ã¢": 4765,
      "Ġdinner": 4766,
      "pan": 4767,
      "estic": 4768,
      "ĠIraq": 4769,
      "Ġsugar": 4770,
      "Ġpool": 4771,
      "Ġstructure": 4772,
      "ĠDef": 4773,
      "Ġentry": 4774,
      "while": 4775,
      "Ġimpl": 4776,
      "yer": 4777,
      "ĠFollow": 4778,
      "ĠGrand": 4779,
      "Ġseparate": 4780,
      "ection": 4781,
      "overy": 4782,
      "Ġkeeping": 4783,
      "ĠGame": 4784,
      "ula": 4785,
      "ĠMusic": 4786,
      "iliar": 4787,
      "ĠNetwork": 4788,
      "Ġban": 4789,
      "ĠLouis": 4790,
      "ĠDevelopment": 4791,
      "with": 4792,
      "oyal": 4793,
      "Ġguide": 4794,
      "ĠLong": 4795,
      "ĠManagement": 4796,
      "Ġsongs": 4797,
      "ĠWomen": 4798,
      "Ġsatisf": 4799,
      "ĠSenate": 4800,
      "odes": 4801,
      "Ġcoffee": 4802,
      "ulty": 4803,
      "Ġappeared": 4804,
      "imal": 4805,
      "ĠCopyright": 4806,
      "Ġelements": 4807,
      "Ġpray": 4808,
      "ellow": 4809,
      "Ġenvironmental": 4810,
      "ĠFort": 4811,
      "Ġdoubt": 4812,
      "ading": 4813,
      "ef": 4814,
      "ĠWhere": 4815,
      "ĠTeam": 4816,
      "asp": 4817,
      "Ġtaste": 4818,
      "Ġtele": 4819,
      "Ġnorth": 4820,
      "Ġdetermine": 4821,
      "Ġinternet": 4822,
      "ĠDou": 4823,
      "Ġtechnical": 4824,
      "Ġbutton": 4825,
      "ĠBoston": 4826,
      "spe": 4827,
      "ĠNOT": 4828,
      "Ġholiday": 4829,
      "Ġleadership": 4830,
      "Ġpm": 4831,
      "ka": 4832,
      "34": 4833,
      "ĠConference": 4834,
      "Ġresist": 4835,
      "ĠReport": 4836,
      "Ġfunding": 4837,
      "aked": 4838,
      "Ġlaunch": 4839,
      "ĠJul": 4840,
      "Ġasking": 4841,
      "Ġafford": 4842,
      "ĠSecurity": 4843,
      "Ġgall": 4844,
      "There": 4845,
      "Ġcommand": 4846,
      "Ġoperating": 4847,
      "Ġharm": 4848,
      "Ġapprox": 4849,
      "Ġbecoming": 4850,
      "Ġcontains": 4851,
      "Ġscr": 4852,
      "rep": 4853,
      "CE": 4854,
      "esome": 4855,
      "Ġmodels": 4856,
      "ĠMot": 4857,
      "ĠMake": 4858,
      "Ġbird": 4859,
      "ĠParty": 4860,
      "ĠHave": 4861,
      "ĠTri": 4862,
      "lymp": 4863,
      "Ġmanufacture": 4864,
      "Ġcells": 4865,
      "met": 4866,
      "uries": 4867,
      "Ġfreed": 4868,
      "ushed": 4869,
      "Ġindependent": 4870,
      "Ġegg": 4871,
      "ĠValley": 4872,
      "ideo": 4873,
      "Ġ2002": 4874,
      "acks": 4875,
      "Ġsouth": 4876,
      "word": 4877,
      "Ġcars": 4878,
      "Ġmarriage": 4879,
      "ĠPeter": 4880,
      "Ġslightly": 4881,
      "Ġspons": 4882,
      "Ġprepared": 4883,
      "Ġrestaurant": 4884,
      "Ġtim": 4885,
      "fast": 4886,
      "ĠTre": 4887,
      "Ġdecisions": 4888,
      "37": 4889,
      "ĠOffic": 4890,
      "Ġtro": 4891,
      "Ġsounds": 4892,
      "Ġpackage": 4893,
      "Ġannounce": 4894,
      "Ġcaught": 4895,
      "Ġarg": 4896,
      "Ġeditor": 4897,
      "ĠEarth": 4898,
      "Ġsurvey": 4899,
      "Ġseconds": 4900,
      "Ġinjury": 4901,
      "Ġincred": 4902,
      "Ġreviews": 4903,
      "05": 4904,
      "erous": 4905,
      "ript": 4906,
      "Ġstrategy": 4907,
      "inct": 4908,
      "Ġforces": 4909,
      "ĠMartin": 4910,
      "ĠAfrica": 4911,
      "Ġprison": 4912,
      "ĠLear": 4913,
      "Ġstream": 4914,
      "Ġsmaller": 4915,
      "Ġartists": 4916,
      "Ġunc": 4917,
      "ocolate": 4918,
      "iques": 4919,
      "Ġyesterday": 4920,
      "ĠFederal": 4921,
      "Ġcoverage": 4922,
      "Ġbra": 4923,
      "Ġupdate": 4924,
      "lands": 4925,
      "ĠPenn": 4926,
      "Ġmarkets": 4927,
      "ront": 4928,
      "Ġgain": 4929,
      "rapy": 4930,
      "ĠAP": 4931,
      "Ġreligious": 4932,
      "ĠThose": 4933,
      "Ġforget": 4934,
      "ĠDen": 4935,
      "levant": 4936,
      "Ġartist": 4937,
      "ker": 4938,
      "ails": 4939,
      "ĠSecret": 4940,
      "Ġbasket": 4941,
      "ĠWater": 4942,
      "Ġmap": 4943,
      "Ġshopping": 4944,
      "ctors": 4945,
      "ga": 4946,
      "ixt": 4947,
      "ĠAcadem": 4948,
      "vere": 4949,
      "ĠOnly": 4950,
      "Ġsupposed": 4951,
      "What": 4952,
      "illa": 4953,
      "Ġfill": 4954,
      "Ġspect": 4955,
      "ĠFamily": 4956,
      "uclear": 4957,
      "ĠJose": 4958,
      "ĠCard": 4959,
      "Ġshooting": 4960,
      "Ġâ": 4961,
      "Ġtight": 4962,
      "Ġearn": 4963,
      "Ġmaintain": 4964,
      "Ġpolicies": 4965,
      "Ġsexual": 4966,
      "Ġbul": 4967,
      "Ġeventually": 4968,
      "going": 4969,
      "do": 4970,
      "Ġposts": 4971,
      "ĠAri": 4972,
      "49": 4973,
      "Ġteaching": 4974,
      "Ġcharges": 4975,
      "ĠOhio": 4976,
      "Ġcitizens": 4977,
      "ĠOlymp": 4978,
      "2012": 4979,
      "Ġmanaged": 4980,
      "Ġexcited": 4981,
      "ĠWestern": 4982,
      "Ġ2001": 4983,
      "Ġrat": 4984,
      "Ġreaders": 4985,
      "Ġride": 4986,
      "ĠMont": 4987,
      "Ġtransl": 4988,
      "Ġarticles": 4989,
      "Ġviolence": 4990,
      "Ġbrows": 4991,
      "Ġwire": 4992,
      "Ġcart": 4993,
      "Ġwindow": 4994,
      "Ġplenty": 4995,
      "ĠNE": 4996,
      "arrant": 4997,
      "Ġfamous": 4998,
      "Ġbehavior": 4999,
      "Ġbalance": 5000,
      "32": 5001,
      "Ġspl": 5002,
      "Ġkill": 5003,
      "ĠAward": 5004,
      "Ġmostly": 5005,
      "usion": 5006,
      "Ġcreative": 5007,
      "Ġlands": 5008,
      "Ġvalues": 5009,
      "Ġjoined": 5010,
      "ĠWeek": 5011,
      "Ġdebt": 5012,
      "88": 5013,
      "Ġresponsibility": 5014,
      "47": 5015,
      "Ġserver": 5016,
      "Ġcalling": 5017,
      "eria": 5018,
      "igation": 5019,
      "ano": 5020,
      "Ġshape": 5021,
      "ĠVirginia": 5022,
      "ĠConst": 5023,
      "ĠDVD": 5024,
      "tered": 5025,
      "Ġrid": 5026,
      "Ġclient": 5027,
      "Ġschedule": 5028,
      "Ġsand": 5029,
      "Ġcream": 5030,
      "ĠTake": 5031,
      "Ġallowing": 5032,
      "ĠWilliams": 5033,
      "Ġlisten": 5034,
      "ship": 5035,
      "Ġraise": 5036,
      "ifts": 5037,
      "free": 5038,
      "ĠStep": 5039,
      "fortunately": 5040,
      "Ġremove": 5041,
      "Ġpreviously": 5042,
      "obe": 5043,
      "ĠAT": 5044,
      "Ĥ¬": 5045,
      "Ġexecutive": 5046,
      "Ġdocuments": 5047,
      "Ġsequ": 5048,
      "rehens": 5049,
      "Ġofficer": 5050,
      "Ġforced": 5051,
      "ĠIran": 5052,
      "Ġ45": 5053,
      "Ġlibrary": 5054,
      "Ġdefend": 5055,
      "ĠCarolina": 5056,
      "Ġfuel": 5057,
      "Ġcommitted": 5058,
      "Ġproposed": 5059,
      "Ġbright": 5060,
      "Ġchallenges": 5061,
      "Ġclassic": 5062,
      "Ġpropos": 5063,
      "orthern": 5064,
      "Ġfailed": 5065,
      "uke": 5066,
      "ĠThank": 5067,
      "Ġspeech": 5068,
      "which": 5069,
      "oos": 5070,
      "Ġdollars": 5071,
      "ÃŃ": 5072,
      "Ġfilled": 5073,
      "Ġthr": 5074,
      "Ġdriver": 5075,
      "ĠOld": 5076,
      "aine": 5077,
      "ansas": 5078,
      "resp": 5079,
      "burg": 5080,
      "NA": 5081,
      "uit": 5082,
      "Ġfacilities": 5083,
      "ournament": 5084,
      "Ġholding": 5085,
      "Ġwelcome": 5086,
      "ĠBefore": 5087,
      "46": 5088,
      "ĠiPhone": 5089,
      "orry": 5090,
      "alls": 5091,
      "llig": 5092,
      "Ġsecure": 5093,
      "Ġmouth": 5094,
      "Ġincor": 5095,
      "Ħ¢": 5096,
      "31": 5097,
      "ampionship": 5098,
      "Ġtesting": 5099,
      "azz": 5100,
      "ĠDi": 5101,
      "abilities": 5102,
      "Ġterror": 5103,
      "Ġadvance": 5104,
      "ĠTur": 5105,
      "Ġfav": 5106,
      "ograp": 5107,
      "pret": 5108,
      "Ġpun": 5109,
      "ulture": 5110,
      "CT": 5111,
      "Ġmarried": 5112,
      "ram": 5113,
      "Ġteachers": 5114,
      "Ġgeneration": 5115,
      "39": 5116,
      "Ġsty": 5117,
      "ĠSign": 5118,
      "Ġstret": 5119,
      "Ġresearc": 5120,
      "Ġcircum": 5121,
      "Ġpresence": 5122,
      "Ġrecip": 5123,
      "craft": 5124,
      "nergy": 5125,
      "ĠBeach": 5126,
      "Ġexercise": 5127,
      "ĠStand": 5128,
      "Ġwitness": 5129,
      "48": 5130,
      "Ġsav": 5131,
      "ĠMedical": 5132,
      "ĠSpring": 5133,
      "uce": 5134,
      "Ġveter": 5135,
      "Ġwalking": 5136,
      "Ġshared": 5137,
      "âĦ¢": 5138,
      "ait": 5139,
      "ushing": 5140,
      "Ġyouth": 5141,
      "iminal": 5142,
      "Ġder": 5143,
      "Ġdiagn": 5144,
      "Ġsustain": 5145,
      "verse": 5146,
      "ĠID": 5147,
      "ania": 5148,
      "ĠCustom": 5149,
      "ĠJon": 5150,
      "ĠNext": 5151,
      "Ġconcerned": 5152,
      "Ġcry": 5153,
      "IR": 5154,
      "ĠNote": 5155,
      "Ġsea": 5156,
      "Ġcore": 5157,
      "Ġpractices": 5158,
      "icit": 5159,
      "Ġvideos": 5160,
      "Ġmovies": 5161,
      "ĠMel": 5162,
      "ĠMen": 5163,
      "Ġtree": 5164,
      "Ġteacher": 5165,
      "Ġmissing": 5166,
      "Ġconven": 5167,
      "ĠNor": 5168,
      "zen": 5169,
      "Ġaccompl": 5170,
      "ĠHy": 5171,
      "Ġsitting": 5172,
      "Ġdecide": 5173,
      "ĠMichigan": 5174,
      "Ġseat": 5175,
      "Ġcritic": 5176,
      "Ġtells": 5177,
      "Ġfactors": 5178,
      "Ġcounty": 5179,
      "Ġaim": 5180,
      "osen": 5181,
      "top": 5182,
      "cles": 5183,
      "ĠBush": 5184,
      "Ġexperienced": 5185,
      "Ġcommunication": 5186,
      "ĠOnline": 5187,
      "ĠPac": 5188,
      "Ġprinc": 5189,
      "OD": 5190,
      "ĠIts": 5191,
      "Ġrise": 5192,
      "care": 5193,
      "life": 5194,
      "SS": 5195,
      "ĠAfrican": 5196,
      "ĠOR": 5197,
      "Ġguard": 5198,
      "known": 5199,
      "ĠCup": 5200,
      "arsh": 5201,
      "Ġoperation": 5202,
      "roid": 5203,
      "ĠLibrary": 5204,
      "ferences": 5205,
      "Ġmedium": 5206,
      "olars": 5207,
      "ĠDig": 5208,
      "Ġalle": 5209,
      "ĠRyan": 5210,
      "Ġactions": 5211,
      "ĠHaw": 5212,
      "Ġnovel": 5213,
      "Ġhonest": 5214,
      "rist": 5215,
      "ownt": 5216,
      "Ġsport": 5217,
      "ini": 5218,
      "Ġstores": 5219,
      "Ġconcerns": 5220,
      "osis": 5221,
      "Ġwinner": 5222,
      "Ġlaun": 5223,
      "rolled": 5224,
      "uated": 5225,
      "Ġwedding": 5226,
      "Ġfemale": 5227,
      "Ġabsolutely": 5228,
      "Ġbrings": 5229,
      "Ġvs": 5230,
      "ĠDri": 5231,
      "ĠIns": 5232,
      "ya": 5233,
      "enture": 5234,
      "Ġleaves": 5235,
      "Ġcontest": 5236,
      "Ġhandle": 5237,
      "Ġstopped": 5238,
      "ĠSecond": 5239,
      "oles": 5240,
      "ĠPubl": 5241,
      "Ġchanging": 5242,
      "Ġarrived": 5243,
      "icians": 5244,
      "Ġbath": 5245,
      "rick": 5246,
      "Ġfocused": 5247,
      "icon": 5248,
      "Ġtrail": 5249,
      "lastname": 5250,
      "Ġcapacity": 5251,
      "ĠCy": 5252,
      "ĠAuthor": 5253,
      "ĠFrance": 5254,
      "umber": 5255,
      "ĠSing": 5256,
      "MS": 5257,
      "ĠWal": 5258,
      "atures": 5259,
      "Ġagreed": 5260,
      "Ġreference": 5261,
      "mpt": 5262,
      "Ġtwice": 5263,
      "Ġrain": 5264,
      "Ġvir": 5265,
      "Ġadvanced": 5266,
      "Ġdedicated": 5267,
      "Ġsets": 5268,
      "ĠFil": 5269,
      "Ġreform": 5270,
      "Ġcop": 5271,
      "Ġintended": 5272,
      "Ġclimate": 5273,
      "alog": 5274,
      "Ġdatabase": 5275,
      "ĠSomet": 5276,
      "ĠAdminist": 5277,
      "Ġmethods": 5278,
      "Ġcombined": 5279,
      "Ġboo": 5280,
      "Ġcombination": 5281,
      "ĠLat": 5282,
      "pet": 5283,
      "ĠMic": 5284,
      "Ġselling": 5285,
      "Ġdebate": 5286,
      "BI": 5287,
      "arge": 5288,
      "ht": 5289,
      "TH": 5290,
      "icate": 5291,
      "Ġplants": 5292,
      "ternal": 5293,
      "ĠMuseum": 5294,
      "ĠReal": 5295,
      "rier": 5296,
      "Ġinitial": 5297,
      "ĠContact": 5298,
      "ĠMaybe": 5299,
      "Ġmetal": 5300,
      "Ġmanage": 5301,
      "Ġcharged": 5302,
      "ĠQue": 5303,
      "alled": 5304,
      "Ġcorporate": 5305,
      "Ġconsid": 5306,
      "Ġamb": 5307,
      "rics": 5308,
      "Ġexperiences": 5309,
      "Ġmort": 5310,
      "Ġapproved": 5311,
      "!âĢĿ": 5312,
      "Ġ36": 5313,
      "ourney": 5314,
      "Ġapart": 5315,
      "ena": 5316,
      "Ġfamiliar": 5317,
      "ev": 5318,
      "oted": 5319,
      "Ġresident": 5320,
      "Ġcompar": 5321,
      "Ġvision": 5322,
      "ĠSar": 5323,
      "Ġofficers": 5324,
      "ĠSeries": 5325,
      "Ġ500": 5326,
      "ĠJun": 5327,
      "Ġcampus": 5328,
      "Ġencourage": 5329,
      "ĠHuman": 5330,
      "Ġconsumers": 5331,
      "Ġserving": 5332,
      "Ġstorage": 5333,
      "Ġwriter": 5334,
      "Ġassistance": 5335,
      "night": 5336,
      "Ġlived": 5337,
      "Ġveget": 5338,
      "Ġarchitect": 5339,
      "Ġhits": 5340,
      "west": 5341,
      "Ġcities": 5342,
      "ĠList": 5343,
      "Ġflat": 5344,
      "ĠNC": 5345,
      "Ġhonor": 5346,
      "Ġremaining": 5347,
      "Ġfacility": 5348,
      "Ġacademic": 5349,
      "ĠChief": 5350,
      ":||": 5351,
      "eal": 5352,
      "tion": 5353,
      "Ġworry": 5354,
      "Ġsides": 5355,
      "Ġenjoyed": 5356,
      "ris": 5357,
      "Ġworse": 5358,
      "ĠGeorg": 5359,
      "Ġscheduled": 5360,
      "Ġconflic": 5361,
      "Ġmagazine": 5362,
      "Ġbutter": 5363,
      "Ġguests": 5364,
      "They": 5365,
      "ĠPan": 5366,
      "Ġalternative": 5367,
      "edia": 5368,
      "Ġintellig": 5369,
      "Ġinstit": 5370,
      "Ġmotor": 5371,
      "Ġremoved": 5372,
      "nel": 5373,
      "arp": 5374,
      "Ġeating": 5375,
      "ulations": 5376,
      "ĠTechnology": 5377,
      "Ġshipping": 5378,
      "Ġdistance": 5379,
      "actions": 5380,
      "ĠCatholic": 5381,
      "Ġquiet": 5382,
      "Ġcolors": 5383,
      "Ġthoughts": 5384,
      "orters": 5385,
      "Ġinfluence": 5386,
      "hab": 5387,
      "Ġformat": 5388,
      "Ġpoly": 5389,
      "Ġexciting": 5390,
      "eed": 5391,
      "PR": 5392,
      "dden": 5393,
      "ression": 5394,
      "Ġcab": 5395,
      "Ġphil": 5396,
      "ĠOrgan": 5397,
      "Ġdie": 5398,
      "ĠFull": 5399,
      "ĠEnergy": 5400,
      "Ġassum": 5401,
      "ola": 5402,
      "LA": 5403,
      "ita": 5404,
      "igr": 5405,
      "secut": 5406,
      "Ġlabel": 5407,
      "ĠYOU": 5408,
      "Ġmissed": 5409,
      "ĠYoung": 5410,
      "ĠLin": 5411,
      "Ġstanding": 5412,
      "Ġexplain": 5413,
      "Ġunits": 5414,
      "Ġtips": 5415,
      "ĠTown": 5416,
      "Ġupdated": 5417,
      "ii": 5418,
      "oh": 5419,
      "Ġhero": 5420,
      "Ġkitchen": 5421,
      "Ġstated": 5422,
      "ĠAdv": 5423,
      "ployment": 5424,
      "Ġcommission": 5425,
      "Ġmeasures": 5426,
      "Ġswitch": 5427,
      "Ġjudge": 5428,
      "ĠMexico": 5429,
      "Ġsmooth": 5430,
      "ĠCEO": 5431,
      "Ġbuying": 5432,
      "Ġnumerous": 5433,
      "Ġcrime": 5434,
      "ĠWin": 5435,
      "ĠElect": 5436,
      "ĠON": 5437,
      "Ġpassion": 5438,
      "Ġtelling": 5439,
      "Ġdelic": 5440,
      "phas": 5441,
      "hop": 5442,
      "ĠInf": 5443,
      "Ġmicro": 5444,
      "Ġsurgery": 5445,
      "Ġupgr": 5446,
      "Ġinvestigation": 5447,
      "cean": 5448,
      "ivered": 5449,
      "Ġstars": 5450,
      "Ġenem": 5451,
      "Ġtickets": 5452,
      "ĠSports": 5453,
      "Ġedge": 5454,
      "LC": 5455,
      "Ġsector": 5456,
      "Ġoccup": 5457,
      "ĠInstead": 5458,
      "Ġcommittee": 5459,
      "Ġmenu": 5460,
      "And": 5461,
      "Ġpush": 5462,
      "Ġinterests": 5463,
      "Ġdepart": 5464,
      "ĠHotel": 5465,
      "Ġregistered": 5466,
      "acle": 5467,
      "Ġdisappoint": 5468,
      "ĠMiddle": 5469,
      "anda": 5470,
      "cient": 5471,
      "Ġsudden": 5472,
      "under": 5473,
      "Ġrecipe": 5474,
      "ĠMa": 5475,
      "Ġtrouble": 5476,
      "ĠCH": 5477,
      "ĠHen": 5478,
      "Ġcas": 5479,
      "Ġearned": 5480,
      "Ġadministr": 5481,
      "Ġanimal": 5482,
      "ias": 5483,
      "Ġpanel": 5484,
      "inch": 5485,
      "Ġapproximately": 5486,
      "Ġstorm": 5487,
      "hand": 5488,
      "ĠRev": 5489,
      "Ġrooms": 5490,
      "ĠFund": 5491,
      "Ġnegative": 5492,
      "Ġcraft": 5493,
      "ĠLee": 5494,
      "Ġnone": 5495,
      "kin": 5496,
      "ĠCharl": 5497,
      "Ġmine": 5498,
      "bur": 5499,
      "ria": 5500,
      "ĠFrancisco": 5501,
      "Ġfreedom": 5502,
      "Ġpayment": 5503,
      "ĠRomney": 5504,
      "Ġdrugs": 5505,
      "Ġtask": 5506,
      "season": 5507,
      "unning": 5508,
      "ĠHistory": 5509,
      "Ġcuts": 5510,
      "Ġneighborhood": 5511,
      "ien": 5512,
      "ĠBoy": 5513,
      "Ġfeels": 5514,
      "Ġtaxes": 5515,
      "Ġorders": 5516,
      ".|": 5517,
      "Ġexpensive": 5518,
      "Ġforg": 5519,
      "Ġhun": 5520,
      "Ġfriendly": 5521,
      "Ġjoint": 5522,
      "ĠVict": 5523,
      "SU": 5524,
      "ĠAud": 5525,
      "ĠFair": 5526,
      "Ġshots": 5527,
      "Ġaid": 5528,
      "Ġpicked": 5529,
      "Ġdu": 5530,
      "Ġprin": 5531,
      "Ġtemperature": 5532,
      "Ġconversation": 5533,
      "rim": 5534,
      "Ġdetect": 5535,
      "Ġju": 5536,
      "Ġconcern": 5537,
      "ĠMur": 5538,
      "Ġbegins": 5539,
      "ilding": 5540,
      "Ġsac": 5541,
      "ulous": 5542,
      "Ġperformed": 5543,
      "Ġuns": 5544,
      "odies": 5545,
      "Ġrot": 5546,
      "Ġsalt": 5547,
      "Ġrealize": 5548,
      "Ġmur": 5549,
      "hat": 5550,
      "Ġefficient": 5551,
      "Ġsister": 5552,
      "Ġflex": 5553,
      "Ġ32": 5554,
      "ĠProduct": 5555,
      "Ġathlet": 5556,
      "Ġagencies": 5557,
      "Ġfilms": 5558,
      "ey": 5559,
      "ĠDivision": 5560,
      "ĠMat": 5561,
      "Ġrelax": 5562,
      "Ġpredict": 5563,
      "ĠWild": 5564,
      "Ġcontro": 5565,
      "Ġtotally": 5566,
      "Ġwearing": 5567,
      "Ġessential": 5568,
      "07": 5569,
      "Ġbrown": 5570,
      "ĠEngine": 5571,
      "Ġingred": 5572,
      "cel": 5573,
      "cluding": 5574,
      "mond": 5575,
      "ĠFour": 5576,
      "Ġrelevant": 5577,
      "Ġawesome": 5578,
      "Ġdiscl": 5579,
      "ĠGal": 5580,
      "Ġeducational": 5581,
      "Ġtheory": 5582,
      "cont": 5583,
      "door": 5584,
      "eah": 5585,
      "abet": 5586,
      "Ġtopic": 5587,
      "ĠOrig": 5588,
      "ĠId": 5589,
      "Ġapplied": 5590,
      "Ġsigns": 5591,
      "ĠHD": 5592,
      "Ġgreatest": 5593,
      "Ġestate": 5594,
      "prise": 5595,
      "Ġseek": 5596,
      "Ġobl": 5597,
      "Ġpurposes": 5598,
      "cohol": 5599,
      "Ġcloud": 5600,
      "osoph": 5601,
      "Ġsuspect": 5602,
      "OC": 5603,
      "Ġvalid": 5604,
      "Ġpitch": 5605,
      "ĠLight": 5606,
      "Ġdiscovered": 5607,
      "Ġrevenue": 5608,
      "Ġdance": 5609,
      "II": 5610,
      "Ġmo": 5611,
      "Ġelement": 5612,
      "ĠEconom": 5613,
      "Ġhundreds": 5614,
      "Ġboys": 5615,
      "Ġtonight": 5616,
      "Ġdiet": 5617,
      "paper": 5618,
      "Ġfly": 5619,
      "Ġyes": 5620,
      "Ġexchange": 5621,
      "Ġdyn": 5622,
      "Ġaudio": 5623,
      "ructure": 5624,
      "Ġadults": 5625,
      "Ġfirstname": 5626,
      "ĠProv": 5627,
      "razy": 5628,
      "cipl": 5629,
      "ĠBlog": 5630,
      "Ġconnected": 5631,
      "water": 5632,
      "Ġcrisis": 5633,
      "Ġidentify": 5634,
      "Ġanywhere": 5635,
      "Ġturns": 5636,
      "otic": 5637,
      "Ġweak": 5638,
      "Ġcalc": 5639,
      "ĠWay": 5640,
      "Ġille": 5641,
      "Ġbusy": 5642,
      "Ġfee": 5643,
      "Ġbroken": 5644,
      "Ġattacks": 5645,
      "ĠOper": 5646,
      "Ġmanner": 5647,
      "Ġfailure": 5648,
      "arian": 5649,
      "ommod": 5650,
      "Ġerror": 5651,
      "ingly": 5652,
      "UT": 5653,
      "Ġintroduced": 5654,
      "hew": 5655,
      "Ġmode": 5656,
      "Ġpregn": 5657,
      "Ġpossibly": 5658,
      "Ġbat": 5659,
      "een": 5660,
      "Ġsympt": 5661,
      "Ġleads": 5662,
      "09": 5663,
      "Ġissued": 5664,
      "ĠDid": 5665,
      "Ġcloser": 5666,
      "kes": 5667,
      "Ġtun": 5668,
      "ician": 5669,
      "Ġdetermined": 5670,
      "Ġoffensive": 5671,
      "ĠBell": 5672,
      "Ġlicense": 5673,
      "Ġdecor": 5674,
      "Ġconcent": 5675,
      "Ġfle": 5676,
      "ghan": 5677,
      "Ġcommitment": 5678,
      "Ġseeking": 5679,
      "ĠColumb": 5680,
      "Ġtables": 5681,
      "lets": 5682,
      "Ġnuclear": 5683,
      "Ġexperts": 5684,
      "Ġsharing": 5685,
      "56": 5686,
      "iser": 5687,
      "Ġ01": 5688,
      "idden": 5689,
      "ighter": 5690,
      "Ġteach": 5691,
      "Ġdiscount": 5692,
      "Ġvisual": 5693,
      "Ġpu": 5694,
      "Ġimproved": 5695,
      "Ġbringing": 5696,
      "equ": 5697,
      "Ġcheap": 5698,
      "As": 5699,
      "Ġuniversity": 5700,
      "Ġcontext": 5701,
      "oti": 5702,
      "ĠUpd": 5703,
      "alian": 5704,
      "ĠOl": 5705,
      "ultural": 5706,
      "Ġprofile": 5707,
      "Ġfellow": 5708,
      "Ġlosing": 5709,
      "Ġdesk": 5710,
      "DF": 5711,
      "Ġaccident": 5712,
      "ĠBrand": 5713,
      "Ġrow": 5714,
      "Ġcultural": 5715,
      "ĠCanad": 5716,
      "Ġconsumer": 5717,
      "ĠSouthern": 5718,
      "Ġtrees": 5719,
      "ciples": 5720,
      "Ġagent": 5721,
      "Ġbike": 5722,
      "Ġtack": 5723,
      "Ġemergency": 5724,
      "Ġring": 5725,
      "Ġvan": 5726,
      "That": 5727,
      "rag": 5728,
      "Ġpal": 5729,
      "Ġfighting": 5730,
      "ĠCook": 5731,
      "ĠCorpor": 5732,
      "real": 5733,
      "Ġboot": 5734,
      "rehensive": 5735,
      "Ġburn": 5736,
      "Ġdomin": 5737,
      "Ġreceiving": 5738,
      "yard": 5739,
      "Ġwarrant": 5740,
      "Ġconfidence": 5741,
      "ĠChildren": 5742,
      "08": 5743,
      "enance": 5744,
      "eless": 5745,
      "erves": 5746,
      "ĠDev": 5747,
      "Ġends": 5748,
      "Ġauthority": 5749,
      "Ġsupported": 5750,
      "Ġoccasion": 5751,
      "ocket": 5752,
      "Ġimportance": 5753,
      "Ġcourses": 5754,
      "ĠGermany": 5755,
      "ĠThree": 5756,
      "ĠSearch": 5757,
      "Ġweapons": 5758,
      "Ġparticipate": 5759,
      "Ġappearance": 5760,
      "anny": 5761,
      "Ġpromote": 5762,
      "ĠAff": 5763,
      "essions": 5764,
      "Ġdelivered": 5765,
      "Ġcontem": 5766,
      "ĠCommun": 5767,
      "Ġideal": 5768,
      "ĠGen": 5769,
      "unction": 5770,
      "Ġenforce": 5771,
      "iner": 5772,
      "urban": 5773,
      "aded": 5774,
      "ĠDate": 5775,
      "Ġregister": 5776,
      "iat": 5777,
      "Ġunf": 5778,
      "ĠWalk": 5779,
      "ĠStart": 5780,
      "Ġtermin": 5781,
      "Ġcopyright": 5782,
      "Ġdestroy": 5783,
      "Ġpurchased": 5784,
      "Ġscientific": 5785,
      "Ġthick": 5786,
      "ĠGall": 5787,
      "Ġfold": 5788,
      "ĠSite": 5789,
      "ĠPerson": 5790,
      "ĠArts": 5791,
      "Ġadapt": 5792,
      "Ġwalked": 5793,
      "Ġobvious": 5794,
      "Ġinstance": 5795,
      "Ġbond": 5796,
      "ĠTest": 5797,
      "Ġpulled": 5798,
      "77": 5799,
      "ems": 5800,
      "Ġfees": 5801,
      "Ġbigger": 5802,
      "uts": 5803,
      "Ġchocolate": 5804,
      "lines": 5805,
      "Ġdecades": 5806,
      "Ġmental": 5807,
      "Ġdemocr": 5808,
      "59": 5809,
      "OV": 5810,
      "Ġimagine": 5811,
      "ĠDar": 5812,
      "Ġment": 5813,
      "Ġbound": 5814,
      "Ġtheme": 5815,
      "Ġhelpful": 5816,
      "06": 5817,
      "Ġbroadcast": 5818,
      "ĠVideo": 5819,
      "Ġcoast": 5820,
      "Ġbelief": 5821,
      "Ġshoes": 5822,
      "ĠFOR": 5823,
      "astern": 5824,
      "Ġspeaking": 5825,
      "rical": 5826,
      "reens": 5827,
      "irty": 5828,
      "Ġsquare": 5829,
      "Ġdial": 5830,
      "ĠExper": 5831,
      "Ġarms": 5832,
      "Ġconfig": 5833,
      "AG": 5834,
      "Ġelimin": 5835,
      "ĠHead": 5836,
      "ossible": 5837,
      "ubs": 5838,
      "ĠLead": 5839,
      "ĠUt": 5840,
      "ĠAriz": 5841,
      "No": 5842,
      "uration": 5843,
      "Ġcorn": 5844,
      "Ġtests": 5845,
      "itutional": 5846,
      "Ġsole": 5847,
      "Ġentered": 5848,
      "Ġmilk": 5849,
      "Ġspecifically": 5850,
      "irmed": 5851,
      "Ġpositions": 5852,
      "But": 5853,
      "Ġgarden": 5854,
      "Ġsad": 5855,
      "Ġtradition": 5856,
      "ĠJapanese": 5857,
      "Ġscale": 5858,
      "aren": 5859,
      "ĠField": 5860,
      "Ġherself": 5861,
      "Ġguest": 5862,
      "ĠMinister": 5863,
      "ĠLog": 5864,
      "Americ": 5865,
      "Ġteen": 5866,
      "Ġrecorded": 5867,
      "Ġvisitors": 5868,
      "86": 5869,
      "Ġbeauty": 5870,
      "Ġlunch": 5871,
      "Ġmale": 5872,
      "Ġplate": 5873,
      "away": 5874,
      "mar": 5875,
      "cious": 5876,
      "âĢĿ,": 5877,
      "Ġentirely": 5878,
      "Ġtrib": 5879,
      "cknow": 5880,
      "Ġdram": 5881,
      "ĠTit": 5882,
      "Ġfigures": 5883,
      "Ġforth": 5884,
      "Ġadvoc": 5885,
      "Ġbread": 5886,
      "Ġrough": 5887,
      "New": 5888,
      "Ġdropped": 5889,
      "Ġrom": 5890,
      "ĠWel": 5891,
      "road": 5892,
      "Ġris": 5893,
      "Ġtechniques": 5894,
      "03": 5895,
      "iability": 5896,
      "Ġphotograph": 5897,
      "Ġcircumst": 5898,
      "Ġconsequ": 5899,
      "Ġresearchers": 5900,
      "Ġarrange": 5901,
      "Ġsurprise": 5902,
      "awn": 5903,
      "Ġmir": 5904,
      "Ġunivers": 5905,
      "gas": 5906,
      "mosp": 5907,
      "ĠGeorgia": 5908,
      "ups": 5909,
      "Ġplanned": 5910,
      "ĠSoft": 5911,
      "Ġmillions": 5912,
      "Ġcrew": 5913,
      "uations": 5914,
      "ĠKore": 5915,
      "Ġfurn": 5916,
      "ĠPage": 5917,
      "Ġsuit": 5918,
      "isters": 5919,
      "umin": 5920,
      "atre": 5921,
      "Ġrapid": 5922,
      "Ġoffense": 5923,
      "Ġminimum": 5924,
      "rad": 5925,
      "ĠCA": 5926,
      "related": 5927,
      "Ġpolitics": 5928,
      "42": 5929,
      "ĠSher": 5930,
      "Ġrare": 5931,
      "Ġswim": 5932,
      "Ġdistribution": 5933,
      "Ġchart": 5934,
      "IF": 5935,
      "Ġworst": 5936,
      "Ġinstitutions": 5937,
      "Ġwaste": 5938,
      "Ġtreated": 5939,
      "ĠBas": 5940,
      "Ġpaying": 5941,
      "ĠIP": 5942,
      "vy": 5943,
      "Ġgather": 5944,
      "ĠMP": 5945,
      "Ġexplained": 5946,
      "reets": 5947,
      "ĠHun": 5948,
      "Ġlaunched": 5949,
      "ĠSqu": 5950,
      "Ġcoordin": 5951,
      "Ġregional": 5952,
      "ĠPack": 5953,
      "ĠRon": 5954,
      "Ġcandidate": 5955,
      "Ġhasn": 5956,
      "Ġ||": 5957,
      "Ġfeatured": 5958,
      "Ġconfident": 5959,
      "Ġvolume": 5960,
      "Ġscript": 5961,
      "iciency": 5962,
      "Ġgrab": 5963,
      "Ġiron": 5964,
      "Ġidentified": 5965,
      "ucks": 5966,
      "ora": 5967,
      "ĠGar": 5968,
      "ĠSpan": 5969,
      "ĠStill": 5970,
      "oman": 5971,
      "ĠData": 5972,
      "Ġconserv": 5973,
      "Ġfruit": 5974,
      "ĠProte": 5975,
      "Ġcandidates": 5976,
      "Ġlocations": 5977,
      "ĠCam": 5978,
      "ĠArmy": 5979,
      "ĠDespite": 5980,
      "Ġordered": 5981,
      "ĠKeep": 5982,
      "Ġparking": 5983,
      "Ġfiled": 5984,
      "ĠThough": 5985,
      "Ġourselves": 5986,
      "Ġhousing": 5987,
      "Ġdetailed": 5988,
      "Ġbreast": 5989,
      "eper": 5990,
      "ĠRepublicans": 5991,
      "anged": 5992,
      "ache": 5993,
      "Ġframe": 5994,
      "uable": 5995,
      "Ġaccommod": 5996,
      "Ġmotion": 5997,
      "aped": 5998,
      "Ġ>>": 5999,
      "ĠAR": 6000,
      "cribe": 6001,
      "ĠDoes": 6002,
      "gypt": 6003,
      "ĠColorado": 6004,
      "Ġfaster": 6005,
      "ĠIsl": 6006,
      "Ġequal": 6007,
      "Ġspokes": 6008,
      "illy": 6009,
      "ĠGra": 6010,
      "Ġportion": 6011,
      "ĠHarr": 6012,
      "Ġthread": 6013,
      "Ġusual": 6014,
      "Ġalleged": 6015,
      "Ġmeat": 6016,
      "Ġstatements": 6017,
      "Ġinternal": 6018,
      "Ġbaseball": 6019,
      "Ġsam": 6020,
      "otes": 6021,
      "ĠHolly": 6022,
      "ĠBre": 6023,
      "Ġexplore": 6024,
      "Ġaccepted": 6025,
      "Ġacknow": 6026,
      "col": 6027,
      "ĠHospital": 6028,
      "Ġcarried": 6029,
      "ĠDie": 6030,
      "bu": 6031,
      "SE": 6032,
      "Ġtow": 6033,
      "ĠFed": 6034,
      "ĠPay": 6035,
      "fection": 6036,
      "Ġcheese": 6037,
      "Ġemphas": 6038,
      "ĠJustice": 6039,
      "Ġchemical": 6040,
      "Ġneck": 6041,
      "Ġflight": 6042,
      "ĠEp": 6043,
      "ĠAndrew": 6044,
      "ĠMid": 6045,
      "ĠAD": 6046,
      "ĠYet": 6047,
      "list": 6048,
      "Ġdiscover": 6049,
      "Ġlaugh": 6050,
      "arrow": 6051,
      "Ġedition": 6052,
      "Ġped": 6053,
      "Ġlock": 6054,
      "respond": 6055,
      "Ġcriminal": 6056,
      "Ġtalent": 6057,
      "Ġcategory": 6058,
      "alse": 6059,
      "ĠInvest": 6060,
      "Ġfactor": 6061,
      "Ġjourney": 6062,
      "UN": 6063,
      "Ġhate": 6064,
      "Don": 6065,
      "lo": 6066,
      "Ġfolks": 6067,
      "Ġpure": 6068,
      "ĠEll": 6069,
      "Ġdefensive": 6070,
      "Ġsurprised": 6071,
      "ĠWord": 6072,
      "Ġhurt": 6073,
      "ban": 6074,
      "Ġreduced": 6075,
      "ĠRay": 6076,
      "Ġindeed": 6077,
      "Ġowned": 6078,
      "ĠKen": 6079,
      "ĠThrough": 6080,
      "elly": 6081,
      "Ġrelatively": 6082,
      "ĠLittle": 6083,
      "Ġresolution": 6084,
      "Ġinstalled": 6085,
      "ĠWhether": 6086,
      "Ġextensive": 6087,
      "Ġbanks": 6088,
      "Ġcauses": 6089,
      "ĠKent": 6090,
      "ĠKenn": 6091,
      "Ġparticipants": 6092,
      "Ġang": 6093,
      "Ġplastic": 6094,
      "Ġ300": 6095,
      "41": 6096,
      "Ġspoke": 6097,
      "Ġodd": 6098,
      "rible": 6099,
      "hered": 6100,
      "Ġfifth": 6101,
      "ĠTour": 6102,
      "Ġunlike": 6103,
      "sembly": 6104,
      "Ġfunny": 6105,
      "Ġentertainment": 6106,
      "Ġsuggested": 6107,
      "Ġcro": 6108,
      "ĠNFL": 6109,
      "âĤ¬": 6110,
      "Sh": 6111,
      "ml": 6112,
      "Ġsubstant": 6113,
      "ĠHon": 6114,
      "Ġvoc": 6115,
      "Ġrelationships": 6116,
      "Ġliqu": 6117,
      "owntown": 6118,
      "My": 6119,
      "Ġtomorrow": 6120,
      "57": 6121,
      "ATION": 6122,
      "Ġadvertising": 6123,
      "Ġfort": 6124,
      "58": 6125,
      "Ġproperly": 6126,
      "Ġvehicles": 6127,
      "Ġchicken": 6128,
      "Ġtransform": 6129,
      "Ġfollows": 6130,
      "Ġoptim": 6131,
      "ĠFar": 6132,
      "aints": 6133,
      "iration": 6134,
      "ĠJewish": 6135,
      "ĠBra": 6136,
      "Ġdomestic": 6137,
      "Ġconver": 6138,
      "Ġadm": 6139,
      "Ġmeetings": 6140,
      "Ġpit": 6141,
      "sts": 6142,
      "clusion": 6143,
      "Ġprofessionals": 6144,
      "Ġnative": 6145,
      "Ġbasketball": 6146,
      "gend": 6147,
      "ĠLab": 6148,
      "Ġmatters": 6149,
      "adium": 6150,
      "rene": 6151,
      "Ġgraduate": 6152,
      "rog": 6153,
      "Ġproperties": 6154,
      "ĠMS": 6155,
      "ĠBi": 6156,
      "Ġprepare": 6157,
      "foot": 6158,
      "Ġbeach": 6159,
      "AY": 6160,
      "ĠEr": 6161,
      "mes": 6162,
      "ĠSecretary": 6163,
      "Ġabuse": 6164,
      "ingu": 6165,
      "ĠAgain": 6166,
      "ĠPot": 6167,
      "ĠCat": 6168,
      "Ġdecade": 6169,
      "ĠArab": 6170,
      "Ġsymptoms": 6171,
      "Ġepisode": 6172,
      "hus": 6173,
      "Ġapparently": 6174,
      "43": 6175,
      "Ġinvolve": 6176,
      "Ġdegrees": 6177,
      "ĠAcademy": 6178,
      "Ġpil": 6179,
      "ĠJenn": 6180,
      "Ġtalks": 6181,
      "Ġrub": 6182,
      "Ġbelong": 6183,
      "ta": 6184,
      "ĠBrad": 6185,
      "ĠAfghan": 6186,
      "can": 6187,
      "ĠEgypt": 6188,
      "ĠCharles": 6189,
      "Ġsusp": 6190,
      "Ġcreation": 6191,
      "Ġupdates": 6192,
      "Ġrecognized": 6193,
      "Ġproceed": 6194,
      "agues": 6195,
      "Ġhighlight": 6196,
      "Ġincorpor": 6197,
      "Ġrac": 6198,
      "Ġanswers": 6199,
      "Ġresol": 6200,
      "Ġfabric": 6201,
      "Ġworldwide": 6202,
      "Ġperspective": 6203,
      "igration": 6204,
      "Ġ1999": 6205,
      "Ġholds": 6206,
      "Ġlegislation": 6207,
      "Ġmut": 6208,
      "Ġtwe": 6209,
      "ĠGirl": 6210,
      "Ġturning": 6211,
      "ĠLand": 6212,
      "Ġchosen": 6213,
      "Ġdogs": 6214,
      "ĠInte": 6215,
      "ĠEnd": 6216,
      "aser": 6217,
      "ĠFox": 6218,
      "comm": 6219,
      "Ġ48": 6220,
      "inet": 6221,
      "Ġwealth": 6222,
      "ework": 6223,
      "Ġdesire": 6224,
      "Ġgrew": 6225,
      "Ġconsidering": 6226,
      "abled": 6227,
      "Ġlit": 6228,
      "ench": 6229,
      "inson": 6230,
      "Ġhistorical": 6231,
      "Ġargument": 6232,
      "aska": 6233,
      "ĠLive": 6234,
      "Ġking": 6235,
      "Ġcompetitive": 6236,
      "Ġrand": 6237,
      "EST": 6238,
      "Ġemployee": 6239,
      "Ġrecommended": 6240,
      "ĠArizona": 6241,
      "aks": 6242,
      "Ġperman": 6243,
      "ĠDaily": 6244,
      ",'": 6245,
      "ĠGM": 6246,
      "agon": 6247,
      "Ġaccounts": 6248,
      "ĠLiber": 6249,
      "Ġaffected": 6250,
      "Ġcable": 6251,
      "Ġbelieved": 6252,
      "izz": 6253,
      "Ġflo": 6254,
      "rastructure": 6255,
      "ĠMax": 6256,
      "ogue": 6257,
      "ĠNight": 6258,
      "ĠExt": 6259,
      "Ġupper": 6260,
      "Ġupcoming": 6261,
      "Ġreporting": 6262,
      "Ġdangerous": 6263,
      "Ġappeal": 6264,
      "Ġfaculty": 6265,
      "ĠCoast": 6266,
      "04": 6267,
      "Ġwal": 6268,
      "GB": 6269,
      "ĠCre": 6270,
      "aylor": 6271,
      "Ġfields": 6272,
      "Ġretire": 6273,
      "hors": 6274,
      "REE": 6275,
      "Ġrenew": 6276,
      "Ġatmosp": 6277,
      "Ġchapter": 6278,
      "TV": 6279,
      "ĠTenn": 6280,
      "Ġtypically": 6281,
      "800": 6282,
      "Ġgoods": 6283,
      "ĠSupport": 6284,
      "ML": 6285,
      "Ġcouncil": 6286,
      "Ġnegoti": 6287,
      "Ġchoices": 6288,
      "ancer": 6289,
      "ĠItalian": 6290,
      "Ġhouses": 6291,
      "ensions": 6292,
      "iveness": 6293,
      "erry": 6294,
      "Ġextended": 6295,
      "ĠHard": 6296,
      "ansion": 6297,
      "Ġbowl": 6298,
      "Ġresource": 6299,
      "Ġautomatically": 6300,
      "Ġconfirm": 6301,
      "inem": 6302,
      "Ġdeals": 6303,
      "Ġinterpret": 6304,
      "Ġnoticed": 6305,
      "ĠChair": 6306,
      "Ġgay": 6307,
      "ĠCross": 6308,
      "Ġsick": 6309,
      "ĠAC": 6310,
      "ario": 6311,
      "Ġmel": 6312,
      "ĠInn": 6313,
      "Ġsoph": 6314,
      "ĠAsia": 6315,
      "ĠJersey": 6316,
      "angers": 6317,
      "Ġsupporting": 6318,
      "pass": 6319,
      "rich": 6320,
      "Ġven": 6321,
      "ĠSP": 6322,
      "ĠWH": 6323,
      "ĠWatch": 6324,
      "Ġkeeps": 6325,
      "osite": 6326,
      "ĠLeg": 6327,
      "iscal": 6328,
      "iors": 6329,
      "ĠVan": 6330,
      "Ġmessages": 6331,
      "ĠStudents": 6332,
      "Ġoriginally": 6333,
      "fol": 6334,
      "ĠKevin": 6335,
      "Ġrandom": 6336,
      "Ġconducted": 6337,
      "ĠBrian": 6338,
      "ĠOS": 6339,
      "Ġobviously": 6340,
      "icial": 6341,
      "Ġseasons": 6342,
      "that": 6343,
      "Ġcomprehensive": 6344,
      "Ġelectronic": 6345,
      "iture": 6346,
      "ĠFinally": 6347,
      "ĠColl": 6348,
      "Ġhell": 6349,
      "Ġprocessing": 6350,
      "Ġhorse": 6351,
      "Ġincident": 6352,
      "Ġmassive": 6353,
      "Ġcake": 6354,
      "iami": 6355,
      "Ġperfectly": 6356,
      "Ġvoters": 6357,
      "Ġletters": 6358,
      "Ġdepth": 6359,
      "Ġgrown": 6360,
      "cluded": 6361,
      "Ġprocesses": 6362,
      "ĠTem": 6363,
      "ERS": 6364,
      "Ġmusical": 6365,
      "ĠDavis": 6366,
      "ĠRod": 6367,
      "ĠFestival": 6368,
      "Ġprofessor": 6369,
      "obs": 6370,
      "ĠConnect": 6371,
      "li": 6372,
      "ĠAccess": 6373,
      "ĠGlobal": 6374,
      "Ġoppon": 6375,
      "ums": 6376,
      "Ġrecovery": 6377,
      "ĠSon": 6378,
      "ĠParis": 6379,
      "Ġtalked": 6380,
      "ĠEnvironment": 6381,
      "Ġquant": 6382,
      "uction": 6383,
      "Ġcrazy": 6384,
      "ĠCost": 6385,
      "Ġjustice": 6386,
      "Ġalcohol": 6387,
      "ibilities": 6388,
      "Ġcolumn": 6389,
      "Ġutil": 6390,
      "eration": 6391,
      "Ġingredients": 6392,
      "Ġast": 6393,
      "azon": 6394,
      "asters": 6395,
      "Ġpassing": 6396,
      "ĠHarry": 6397,
      "Ġoutput": 6398,
      "Ġsymb": 6399,
      "Ġreturns": 6400,
      "ĠFun": 6401,
      "Ġhoping": 6402,
      "Ġwarn": 6403,
      "Ġbuildings": 6404,
      "ĠMuslim": 6405,
      "ĠHou": 6406,
      "Ġprove": 6407,
      "Ġstretch": 6408,
      "EE": 6409,
      "Ġanyway": 6410,
      "Ġtea": 6411,
      "Ġtechnologies": 6412,
      "ĠKey": 6413,
      "rooms": 6414,
      "ĠMaster": 6415,
      "ye": 6416,
      "orough": 6417,
      "orders": 6418,
      "Ġcircumstances": 6419,
      "ĠMean": 6420,
      "==": 6421,
      "Ġhardware": 6422,
      "Ġhappening": 6423,
      "Ġscholars": 6424,
      "Ġfixed": 6425,
      "Ġinspired": 6426,
      "Ġauthorities": 6427,
      "Ġstrike": 6428,
      "Ġreligion": 6429,
      "Ġroute": 6430,
      "ĠRest": 6431,
      "Ġpermission": 6432,
      "Ġticket": 6433,
      "ĠSaf": 6434,
      "ashed": 6435,
      "print": 6436,
      "Ġmaximum": 6437,
      "Ġliked": 6438,
      "Cl": 6439,
      "Ġbelieves": 6440,
      "ĠManager": 6441,
      "Ġtopics": 6442,
      "Ġtournament": 6443,
      "achel": 6444,
      "Ġstands": 6445,
      "och": 6446,
      "Ġgro": 6447,
      "obby": 6448,
      "ĠCanadian": 6449,
      "ua": 6450,
      "ĠSup": 6451,
      "Ġillustr": 6452,
      "rors": 6453,
      "idelines": 6454,
      "Ġsan": 6455,
      "ĠSet": 6456,
      "inton": 6457,
      "weet": 6458,
      "Ġcutting": 6459,
      "Ġinfo": 6460,
      "Ġfoods": 6461,
      "Ġmotiv": 6462,
      "ĠLim": 6463,
      "ĠQuest": 6464,
      "ih": 6465,
      "Ġcomponents": 6466,
      "ĠRight": 6467,
      "Ġknowing": 6468,
      "Ġcooper": 6469,
      "Ġemployment": 6470,
      "ĠDaniel": 6471,
      "ĠDisc": 6472,
      "ĠCN": 6473,
      "oking": 6474,
      "rid": 6475,
      "Ġnob": 6476,
      "Ġrevealed": 6477,
      "Ġenhance": 6478,
      "ffect": 6479,
      "Ġinput": 6480,
      "uting": 6481,
      "ĠLew": 6482,
      "ĠCast": 6483,
      "Ġpresentation": 6484,
      "ellect": 6485,
      "ATE": 6486,
      "ĠProfessor": 6487,
      "When": 6488,
      "Ġbon": 6489,
      "Ġspr": 6490,
      "Ġorganis": 6491,
      "Ġformed": 6492,
      "Ġreasonable": 6493,
      "essed": 6494,
      "Ġaccurate": 6495,
      "Ġinches": 6496,
      "ĠRand": 6497,
      "adel": 6498,
      "Con": 6499,
      "Ġfunctions": 6500,
      "Ġchannel": 6501,
      "ĠPlus": 6502,
      "Ġshares": 6503,
      "Ġremote": 6504,
      "Ġbare": 6505,
      "Ġmeal": 6506,
      "ĠStan": 6507,
      "oster": 6508,
      "hetic": 6509,
      "onna": 6510,
      "Ġtruck": 6511,
      "uster": 6512,
      "ĠPoint": 6513,
      "Ġfacing": 6514,
      "FC": 6515,
      "etic": 6516,
      "ĠSpanish": 6517,
      "ĠPrice": 6518,
      "RI": 6519,
      "Ġchain": 6520,
      "ĠSanta": 6521,
      "Ġchamp": 6522,
      "ĠPak": 6523,
      "law": 6524,
      "Ġaspects": 6525,
      "For": 6526,
      "bour": 6527,
      "ĠFre": 6528,
      "Ġimpossible": 6529,
      "Ġboat": 6530,
      "ĠCe": 6531,
      "weight": 6532,
      "ĠLind": 6533,
      "ĠDemocratic": 6534,
      "ĠPacific": 6535,
      "Ġcooking": 6536,
      "Ġexclusive": 6537,
      "ĠUsing": 6538,
      "esh": 6539,
      "Ġgear": 6540,
      "berry": 6541,
      "Ġcovers": 6542,
      "Ġfeaturing": 6543,
      "Ġtaught": 6544,
      "ĠEric": 6545,
      "ĠRights": 6546,
      "Ġseriously": 6547,
      "lete": 6548,
      "mary": 6549,
      "ĠGames": 6550,
      "Ġexamples": 6551,
      "Ġconvention": 6552,
      "Ġhopes": 6553,
      "02": 6554,
      "pre": 6555,
      "ĠÂ·": 6556,
      "Ġwid": 6557,
      "Ġdelay": 6558,
      "ĠFord": 6559,
      "Ġfantastic": 6560,
      "Ġinstructions": 6561,
      "MA": 6562,
      "ĠPlace": 6563,
      "Ġunable": 6564,
      "Ġdecre": 6565,
      "Ġrealized": 6566,
      "ĠMiami": 6567,
      "Ġsubmit": 6568,
      "Ġdivision": 6569,
      "Ġwebsites": 6570,
      "Ġsample": 6571,
      "ĠVictor": 6572,
      "Ġindex": 6573,
      "Ġok": 6574,
      "sell": 6575,
      "Ġincreases": 6576,
      "ĠAdam": 6577,
      "host": 6578,
      "ĠHope": 6579,
      "Ġelig": 6580,
      "Ġstreets": 6581,
      "Ġhur": 6582,
      "ĠRa": 6583,
      "Ġisland": 6584,
      "Ġprovider": 6585,
      "Ġbroke": 6586,
      "Ġillegal": 6587,
      "ĠMiller": 6588,
      "Ġgrade": 6589,
      "ĠKim": 6590,
      "Ġkinds": 6591,
      "66": 6592,
      "ĠIndust": 6593,
      "owing": 6594,
      "ĠDC": 6595,
      "Ġdepending": 6596,
      "Ġarrested": 6597,
      "ala": 6598,
      "Ġstudio": 6599,
      "Ġjoy": 6600,
      "ĠKansas": 6601,
      "Ġsomewhat": 6602,
      "arters": 6603,
      "ĠMeet": 6604,
      "ĠDemocrats": 6605,
      "Ġapproval": 6606,
      "Ġvictims": 6607,
      "Ġwatched": 6608,
      "ĠAndroid": 6609,
      "Ġsignificantly": 6610,
      "utch": 6611,
      "Ġshel": 6612,
      "Ġcounsel": 6613,
      "Ġwest": 6614,
      "Ġexpressed": 6615,
      "Ġadds": 6616,
      "An": 6617,
      "Ġhyd": 6618,
      "ican": 6619,
      "Ġscientists": 6620,
      "ĠKat": 6621,
      "Ġ33": 6622,
      "Ġyounger": 6623,
      "ĠSH": 6624,
      "ĠUnfortunately": 6625,
      "Ġvisiting": 6626,
      "Ġloan": 6627,
      "you": 6628,
      "Ġid": 6629,
      "Ġpump": 6630,
      "ĠJac": 6631,
      "ifications": 6632,
      "Ġmoves": 6633,
      "ĠCarl": 6634,
      "TA": 6635,
      "Ġsou": 6636,
      "Ġgod": 6637,
      "ĠSus": 6638,
      "athan": 6639,
      "Ġbirthday": 6640,
      "ĠTaylor": 6641,
      "Ġimpressive": 6642,
      "oration": 6643,
      "Ġthin": 6644,
      "lyn": 6645,
      "ĠRadio": 6646,
      "ĠOpt": 6647,
      "Ġjun": 6648,
      "Ġsauce": 6649,
      "Ġdiscussed": 6650,
      "Ġnurs": 6651,
      "Ġneither": 6652,
      "ded": 6653,
      "Ġcapable": 6654,
      "Ġnav": 6655,
      "Ġremark": 6656,
      "long": 6657,
      "Ġemp": 6658,
      "52": 6659,
      "amber": 6660,
      "Ġlights": 6661,
      "Ġec": 6662,
      "Ġmoments": 6663,
      "Ġaffili": 6664,
      "Ġfairly": 6665,
      "Ġfalse": 6666,
      "Ġmixed": 6667,
      "ĠTony": 6668,
      "Ġscoring": 6669,
      "ĠHom": 6670,
      "ĠWilson": 6671,
      "Ġdesigns": 6672,
      "Ġvice": 6673,
      "Ġserves": 6674,
      "54": 6675,
      "Ġprocedures": 6676,
      "Ġpercentage": 6677,
      "Ġprompt": 6678,
      "onym": 6679,
      "inois": 6680,
      "Ġinfl": 6681,
      "ĠiPad": 6682,
      "erg": 6683,
      "Ġwins": 6684,
      "Ġvary": 6685,
      "Ġfaces": 6686,
      "ĠPerhaps": 6687,
      "Ġdiss": 6688,
      "Ġtall": 6689,
      "ĠContin": 6690,
      "Ġmaintenance": 6691,
      "ĠCON": 6692,
      "Ġamend": 6693,
      "Ġrail": 6694,
      "Ġcontrast": 6695,
      "eries": 6696,
      "Ġ37": 6697,
      "Ġplanet": 6698,
      "Ġappreciate": 6699,
      "Ġmedicine": 6700,
      "ĠControl": 6701,
      "CA": 6702,
      "DS": 6703,
      "ĠPass": 6704,
      "Ġattorney": 6705,
      "Ġweren": 6706,
      "Ġinnovative": 6707,
      "Ġpractical": 6708,
      "lights": 6709,
      "ĠFriend": 6710,
      "Ġdish": 6711,
      "new": 6712,
      "lla": 6713,
      "Ġrestaurants": 6714,
      "Ġbeer": 6715,
      "Ġdefined": 6716,
      "Ġfacts": 6717,
      "Ġinvestors": 6718,
      "Ġlicens": 6719,
      "Ġmurder": 6720,
      "ĠHor": 6721,
      ".âĢĻ": 6722,
      "eding": 6723,
      "Ġcorrespond": 6724,
      "ĠTurn": 6725,
      "Ġcarbon": 6726,
      "Ġglad": 6727,
      "Ġpounds": 6728,
      "ureau": 6729,
      "ĠCurrent": 6730,
      "Ġconfirmed": 6731,
      "Ġarts": 6732,
      "iano": 6733,
      "Ġbattery": 6734,
      "anna": 6735,
      "Ġpleased": 6736,
      "Ġslowly": 6737,
      "profit": 6738,
      "owa": 6739,
      "Ġnarrow": 6740,
      "Ġcrack": 6741,
      "Ġinjuries": 6742,
      "Ġrele": 6743,
      "ĠDigital": 6744,
      "Ġaf": 6745,
      "Ġclinical": 6746,
      "Pro": 6747,
      "boy": 6748,
      "cons": 6749,
      "wing": 6750,
      "Ġguitar": 6751,
      "Ġstood": 6752,
      "ĠHand": 6753,
      "Ġsupports": 6754,
      "Ġconstruct": 6755,
      "oral": 6756,
      "ĠLow": 6757,
      "Ġdirected": 6758,
      "grad": 6759,
      "Ġphotograp": 6760,
      "Ġelected": 6761,
      "Ġ38": 6762,
      "nic": 6763,
      "ava": 6764,
      "iana": 6765,
      "Ġdescription": 6766,
      "ilit": 6767,
      "ĠDun": 6768,
      "Ġpossibility": 6769,
      "rum": 6770,
      "ĠDownload": 6771,
      "xy": 6772,
      "ĠGreg": 6773,
      "Ġ)": 6774,
      "ĠLocal": 6775,
      "tle": 6776,
      "Ġwheel": 6777,
      "gage": 6778,
      "rip": 6779,
      "phy": 6780,
      "ĠAvenue": 6781,
      "Ġexecut": 6782,
      "mont": 6783,
      "oes": 6784,
      "Ġauthors": 6785,
      "pay": 6786,
      "irms": 6787,
      "ĠAdministration": 6788,
      "ĠAp": 6789,
      "ĠGuide": 6790,
      "Ġtag": 6791,
      "stream": 6792,
      "ĠNick": 6793,
      "Ġinfrastructure": 6794,
      "ĠMinnes": 6795,
      "rage": 6796,
      "Ġsignal": 6797,
      "ĠBroad": 6798,
      "ĠBull": 6799,
      "ĠExecutive": 6800,
      "Ġ1990": 6801,
      "Ġindustrial": 6802,
      "ĠHouston": 6803,
      "Ġclothes": 6804,
      "ĠExpl": 6805,
      "Ġclaimed": 6806,
      "ĠWat": 6807,
      "Ġsurprising": 6808,
      "va": 6809,
      "Ġagents": 6810,
      "Ġzone": 6811,
      "ĠBru": 6812,
      "Ġdifferences": 6813,
      "Ġfrequently": 6814,
      "Ġdescribe": 6815,
      "Ġconsistent": 6816,
      "Ġinstrument": 6817,
      "ixture": 6818,
      "ĠFred": 6819,
      "Ġgifts": 6820,
      "ĠWrit": 6821,
      "Ġrose": 6822,
      "ĠCreat": 6823,
      "rate": 6824,
      "Ġoccurred": 6825,
      "bing": 6826,
      "gs": 6827,
      "Ġtrend": 6828,
      "Ġfeedback": 6829,
      "greg": 6830,
      "Ġimmediate": 6831,
      "âĢľ": 6832,
      "Ġspin": 6833,
      "ĠAsh": 6834,
      "omy": 6835,
      "Ġsin": 6836,
      "Ġ75": 6837,
      "Ġpersons": 6838,
      "ĠRose": 6839,
      "Ġenthus": 6840,
      "ĠIllinois": 6841,
      "ĠAS": 6842,
      "ogs": 6843,
      "ĠPolicy": 6844,
      "Ġphilosoph": 6845,
      "Ġsilver": 6846,
      "Ġregistration": 6847,
      "Ġlikes": 6848,
      "Ġrelief": 6849,
      "Ġproposal": 6850,
      "Ġlux": 6851,
      "Ġvast": 6852,
      "Ġevil": 6853,
      "estyle": 6854,
      "Ġsurf": 6855,
      "Ġlovely": 6856,
      "Ġrestrict": 6857,
      "Ġheads": 6858,
      "ĠAustralian": 6859,
      "Ġenforcement": 6860,
      "Ġbear": 6861,
      "Ġsubmitted": 6862,
      "ĠBase": 6863,
      "Ġobjects": 6864,
      "Ġheav": 6865,
      "ĠLA": 6866,
      "nell": 6867,
      "Ġreject": 6868,
      "resents": 6869,
      "ĠSky": 6870,
      "Ġnetworks": 6871,
      "Ġidentity": 6872,
      "Ġvillage": 6873,
      "LY": 6874,
      "Ġcommunications": 6875,
      "Al": 6876,
      "etime": 6877,
      "endar": 6878,
      "ĠKnow": 6879,
      "ailability": 6880,
      "Ġspiritual": 6881,
      "ĠJoseph": 6882,
      "apes": 6883,
      "ĠWhich": 6884,
      "Ġdrivers": 6885,
      "________": 6886,
      "born": 6887,
      "run": 6888,
      "Ġconcert": 6889,
      "ĠBible": 6890,
      "Ġtail": 6891,
      "game": 6892,
      "Ġplayoff": 6893,
      "Ġ:)": 6894,
      "ĠHenry": 6895,
      "cling": 6896,
      "anges": 6897,
      "Ġsettings": 6898,
      "ĠFurther": 6899,
      "uling": 6900,
      "Ġbreakfast": 6901,
      "78": 6902,
      "class": 6903,
      "Ġempt": 6904,
      "Ġentit": 6905,
      "ĠAssist": 6906,
      "Ġrecognize": 6907,
      "Ġmuseum": 6908,
      "encing": 6909,
      "Ġeffectively": 6910,
      "iscons": 6911,
      "bar": 6912,
      "ĠMinnesota": 6913,
      "Ġcarefully": 6914,
      "\")": 6915,
      "ĠTech": 6916,
      "ĠPakistan": 6917,
      "ĠLabor": 6918,
      "isconsin": 6919,
      "Is": 6920,
      "Ġfavour": 6921,
      "Ġexcess": 6922,
      "Ġinvent": 6923,
      "Ġfinds": 6924,
      "ĠBox": 6925,
      "ĠTig": 6926,
      "Ġvaluable": 6927,
      "Ġborder": 6928,
      "Ġunion": 6929,
      "ĠCO": 6930,
      "Ġestimated": 6931,
      "Ġconflict": 6932,
      "Ġremained": 6933,
      "Ġengineering": 6934,
      "Ġcontrovers": 6935,
      "Ġclosely": 6936,
      "ca": 6937,
      "cers": 6938,
      "Ġtypical": 6939,
      "cue": 6940,
      "ĠSometimes": 6941,
      "sm": 6942,
      "Ġdistinct": 6943,
      "Ġsoul": 6944,
      "Ġages": 6945,
      "Ġesc": 6946,
      "Ġcock": 6947,
      "Ġsomewhere": 6948,
      "rett": 6949,
      "Ġmountain": 6950,
      "ĠMD": 6951,
      "ĠStat": 6952,
      "lah": 6953,
      "opping": 6954,
      "xx": 6955,
      "ĠHollywood": 6956,
      "98": 6957,
      "entle": 6958,
      "teen": 6959,
      "96": 6960,
      "appy": 6961,
      "Ġsimpl": 6962,
      "rome": 6963,
      "Ġsyn": 6964,
      "otal": 6965,
      "bel": 6966,
      "Ġdebut": 6967,
      "Ġsteel": 6968,
      "Ġattended": 6969,
      "ĠSeattle": 6970,
      "Ġawards": 6971,
      "53": 6972,
      "alle": 6973,
      "ĠRoom": 6974,
      "Ġflood": 6975,
      "Ġflavor": 6976,
      "Ġsight": 6977,
      "ĠPop": 6978,
      "On": 6979,
      "ĠRam": 6980,
      "Ġsuc": 6981,
      "Ġpersonally": 6982,
      "ĠRick": 6983,
      "ĠThus": 6984,
      "Ġeverybody": 6985,
      "ĠPhoto": 6986,
      "Ex": 6987,
      "stein": 6988,
      "Ġfro": 6989,
      "Ġaggress": 6990,
      "Ġadvis": 6991,
      "Ġhat": 6992,
      "Ġrepeated": 6993,
      "Ġhang": 6994,
      "stone": 6995,
      "ĠEqu": 6996,
      "Ġhall": 6997,
      "Ġdim": 6998,
      "aug": 6999,
      "Ġrein": 7000,
      "Ġgolf": 7001,
      "Ġriver": 7002,
      "ran": 7003,
      "Ġstim": 7004,
      "Ġrepresents": 7005,
      "aze": 7006,
      "Ġbull": 7007,
      "Ġ...": 7008,
      "Ġwrites": 7009,
      "ĠKh": 7010,
      "Ġhousehold": 7011,
      "inations": 7012,
      "Ġmand": 7013,
      "utation": 7014,
      "ĠKar": 7015,
      "Ġpromise": 7016,
      "ĠMajor": 7017,
      "Ġatmosphere": 7018,
      "ugh": 7019,
      "Ġflour": 7020,
      "ĠSummer": 7021,
      "Ġtur": 7022,
      "Ġprinciples": 7023,
      "pel": 7024,
      "anned": 7025,
      "Ġbasically": 7026,
      "Ġnecessarily": 7027,
      "star": 7028,
      "ĠOrder": 7029,
      "phia": 7030,
      "amental": 7031,
      "ockey": 7032,
      "abetes": 7033,
      "Ġwalls": 7034,
      "Ġinterface": 7035,
      "Ġregularly": 7036,
      "ati": 7037,
      "ĠWisconsin": 7038,
      "Ġnewspaper": 7039,
      "Ġ34": 7040,
      "Ġtitles": 7041,
      "Ġexpression": 7042,
      "Ġrisks": 7043,
      "ĠGi": 7044,
      "ĠSU": 7045,
      "Ġinstruct": 7046,
      "Ġvacation": 7047,
      "ĠRog": 7048,
      "Ġobtain": 7049,
      "VER": 7050,
      "ras": 7051,
      "Ġdoors": 7052,
      "Ġtransition": 7053,
      "Ġstrange": 7054,
      "Ġsurrounding": 7055,
      "esides": 7056,
      "ĠCirc": 7057,
      "ĠJoin": 7058,
      "Ġongoing": 7059,
      "Ġmini": 7060,
      "iti": 7061,
      "Ġbrowser": 7062,
      "Ġtracks": 7063,
      "ĠMountain": 7064,
      "Ġduty": 7065,
      "Ġ1998": 7066,
      "ĠVill": 7067,
      "hent": 7068,
      "Ġcontained": 7069,
      "Ġlistening": 7070,
      "Ġlie": 7071,
      "Ġeast": 7072,
      "Ġsuggests": 7073,
      "Ġacts": 7074,
      "Ġultimately": 7075,
      "Ġnoise": 7076,
      "bal": 7077,
      "Ġ08": 7078,
      "Ġoutstanding": 7079,
      "Ġvictim": 7080,
      "Ġjack": 7081,
      "Ġaside": 7082,
      "Ġsolar": 7083,
      "ĠSupreme": 7084,
      "Ġversions": 7085,
      "Ġbodies": 7086,
      "Ġmal": 7087,
      "zy": 7088,
      "umes": 7089,
      "suit": 7090,
      "Ġregulations": 7091,
      "ĠSE": 7092,
      "Ġmonthly": 7093,
      "ĠItaly": 7094,
      "adelphia": 7095,
      "Ġagric": 7096,
      "Ġthinks": 7097,
      "ĠFarm": 7098,
      "regon": 7099,
      "Ġ~": 7100,
      "aron": 7101,
      "ĠSat": 7102,
      "Ġrepair": 7103,
      "PM": 7104,
      "uls": 7105,
      "Ġwindows": 7106,
      "makers": 7107,
      "ĠAnth": 7108,
      "Ġdefault": 7109,
      "Ġ09": 7110,
      "CS": 7111,
      "ĠML": 7112,
      "ĠLy": 7113,
      "ocking": 7114,
      "Ġattrib": 7115,
      "Ġemotional": 7116,
      "Ġjew": 7117,
      "ĠAmazon": 7118,
      "Ġlayer": 7119,
      "claim": 7120,
      "Ġcycle": 7121,
      "51": 7122,
      "nda": 7123,
      "ographic": 7124,
      "Ġanticip": 7125,
      "ione": 7126,
      "Ġorganized": 7127,
      "Ġmic": 7128,
      "Bl": 7129,
      "Ġ($": 7130,
      "ĠConf": 7131,
      "ĠScot": 7132,
      "2011": 7133,
      "Ġpra": 7134,
      "ĠCa": 7135,
      "Ġreader": 7136,
      "Ġinstallation": 7137,
      "Ġcontinuing": 7138,
      "ouch": 7139,
      "Ġreaction": 7140,
      "Ġnom": 7141,
      "burgh": 7142,
      "iki": 7143,
      "ĠIM": 7144,
      "iversary": 7145,
      "level": 7146,
      "osit": 7147,
      "Ġlegs": 7148,
      "ĠAsk": 7149,
      "she": 7150,
      "pat": 7151,
      "Ġbatt": 7152,
      "iments": 7153,
      "ĠBa": 7154,
      "ĠJosh": 7155,
      "ĠCentre": 7156,
      "Ġwet": 7157,
      "ĠBE": 7158,
      "ĠApplic": 7159,
      "Ġhyp": 7160,
      "Ġfuck": 7161,
      "yers": 7162,
      "Ġassault": 7163,
      "Ġchose": 7164,
      "Ġboost": 7165,
      "sue": 7166,
      "Ġbench": 7167,
      "ĠSea": 7168,
      "Ġposting": 7169,
      "Ġsufficient": 7170,
      "Ġreplaced": 7171,
      "ĠNever": 7172,
      "Ġnearby": 7173,
      "Ġguarantee": 7174,
      "lder": 7175,
      "ĠOK": 7176,
      "Ġlargely": 7177,
      "Ġgotten": 7178,
      "Ġdelight": 7179,
      "Ġcollected": 7180,
      "Ġgrass": 7181,
      "Ġhitting": 7182,
      "Ġtherapy": 7183,
      "ĠMult": 7184,
      "How": 7185,
      "Ġstrategies": 7186,
      "Ġyellow": 7187,
      "Ġcentre": 7188,
      "Ġdates": 7189,
      "Ġrecording": 7190,
      "76": 7191,
      "ĠHelp": 7192,
      "ĠHeart": 7193,
      "Ġheight": 7194,
      "ĠAwards": 7195,
      "Ġancient": 7196,
      "ĠOak": 7197,
      "icing": 7198,
      "ĠLuc": 7199,
      "Ġprocedure": 7200,
      "oore": 7201,
      "ipal": 7202,
      "ĠArea": 7203,
      "wered": 7204,
      "onto": 7205,
      "?)": 7206,
      "ylv": 7207,
      "Ġsharp": 7208,
      "Ġincreasingly": 7209,
      "ĠMobile": 7210,
      "Ġurban": 7211,
      "TER": 7212,
      "Ġhistoric": 7213,
      "Ġcompens": 7214,
      "ĠRussia": 7215,
      "Ġbunch": 7216,
      "Ġseed": 7217,
      "ĠLady": 7218,
      "Ġmembership": 7219,
      "Ġbow": 7220,
      "Ġloves": 7221,
      "ĠNH": 7222,
      "Ġexplains": 7223,
      "idays": 7224,
      "Ġtie": 7225,
      "ĠDiego": 7226,
      "Ġtiny": 7227,
      "Ġmoder": 7228,
      "stra": 7229,
      "Ġopposition": 7230,
      "Ġprivacy": 7231,
      "ĠStephen": 7232,
      "Ġphen": 7233,
      "Ġimprovement": 7234,
      "adow": 7235,
      "ba": 7236,
      "Ġproof": 7237,
      "Ġprohib": 7238,
      "ensus": 7239,
      "Ġprofit": 7240,
      "ador": 7241,
      "ĠDam": 7242,
      "anche": 7243,
      "ĠForce": 7244,
      "Ġexposure": 7245,
      "Ġexpectations": 7246,
      "lahoma": 7247,
      "iform": 7248,
      "high": 7249,
      "Ġincredible": 7250,
      "ĠSpirit": 7251,
      "inder": 7252,
      "den": 7253,
      "oned": 7254,
      "ĠJay": 7255,
      "Ġexception": 7256,
      "Ġlists": 7257,
      "Ġcompr": 7258,
      "Ġsky": 7259,
      "ĠAL": 7260,
      "ĠBal": 7261,
      "Ġinvited": 7262,
      "Ġcelebrate": 7263,
      "Ġroutine": 7264,
      "car": 7265,
      "Ġ49": 7266,
      "Ġapartment": 7267,
      "Ġheaded": 7268,
      "Ġtradem": 7269,
      "ĠIowa": 7270,
      "ĠFoot": 7271,
      "Ġoffices": 7272,
      "Ġorganic": 7273,
      "http": 7274,
      "Ġflav": 7275,
      "Ġfishing": 7276,
      "ESS": 7277,
      "asks": 7278,
      "ĠJason": 7279,
      "Ġprepar": 7280,
      "ĠSteven": 7281,
      "Ġtied": 7282,
      "--------": 7283,
      "ĠFREE": 7284,
      "Ġapps": 7285,
      "Ġhook": 7286,
      "Ġvotes": 7287,
      "agan": 7288,
      "Ġextent": 7289,
      "ennis": 7290,
      "atoes": 7291,
      "ikes": 7292,
      "ritten": 7293,
      "Ġplug": 7294,
      "Ġtouchdown": 7295,
      "Ġdowntown": 7296,
      "ĠSystems": 7297,
      "alo": 7298,
      ")|": 7299,
      "AV": 7300,
      "Ġdealing": 7301,
      "ĠRoyal": 7302,
      "eline": 7303,
      "ĠED": 7304,
      "allas": 7305,
      "Ġoutdoor": 7306,
      "ĠComple": 7307,
      "Ġfoundation": 7308,
      "Ġawareness": 7309,
      "ĠSuch": 7310,
      "Ġpartnership": 7311,
      "Ġassistant": 7312,
      "Ġ400": 7313,
      "Ġphase": 7314,
      "ĠOregon": 7315,
      "ensity": 7316,
      "Ġassign": 7317,
      "ĠAfghanistan": 7318,
      "ĠDave": 7319,
      "Ġalive": 7320,
      "ĠStaff": 7321,
      "ĠSpace": 7322,
      "Ġinformed": 7323,
      "Ġsupplies": 7324,
      "ether": 7325,
      "Ġpassword": 7326,
      "Ġwra": 7327,
      "ologist": 7328,
      "Ġfiscal": 7329,
      "ĠCode": 7330,
      "Ġsevere": 7331,
      "ĠCond": 7332,
      "ĠSection": 7333,
      "Ġlucky": 7334,
      "irts": 7335,
      "Ar": 7336,
      "Ġdoctors": 7337,
      "Ġsavings": 7338,
      "liam": 7339,
      "acon": 7340,
      "Ġintellect": 7341,
      "Ġflash": 7342,
      "ĠStudies": 7343,
      "inent": 7344,
      "Ġkilling": 7345,
      "itage": 7346,
      "Ġrear": 7347,
      "Ġyield": 7348,
      "ĠLar": 7349,
      "ĠPhiladelphia": 7350,
      "ĠMeanwhile": 7351,
      "icted": 7352,
      "Ġairport": 7353,
      "Ġweekly": 7354,
      "Ġreferred": 7355,
      "ĠHas": 7356,
      "Ġwriters": 7357,
      "des": 7358,
      "ĠBon": 7359,
      "Ġtrick": 7360,
      "asts": 7361,
      "itals": 7362,
      "alty": 7363,
      "ylvania": 7364,
      "dy": 7365,
      "ĠBarb": 7366,
      "hot": 7367,
      "American": 7368,
      "Ġconstantly": 7369,
      "Ġflowers": 7370,
      "ĠSenior": 7371,
      "ĠMagazine": 7372,
      "uing": 7373,
      "Ġenable": 7374,
      "Ġmanufacturing": 7375,
      "Ġintelligence": 7376,
      "Ġdelicious": 7377,
      "ĠBalt": 7378,
      "comes": 7379,
      "TC": 7380,
      "oir": 7381,
      "ĠBowl": 7382,
      "ppy": 7383,
      "redit": 7384,
      "ĠPalest": 7385,
      "Ġdiscipl": 7386,
      "ĠLearn": 7387,
      "utor": 7388,
      "ĠRo": 7389,
      "ĠUlt": 7390,
      "Ġreward": 7391,
      "ĠHa": 7392,
      "Ġterrit": 7393,
      "Ġinnings": 7394,
      "ĠMess": 7395,
      "Ġvoted": 7396,
      "ĠRussian": 7397,
      "So": 7398,
      "ĠLo": 7399,
      "Ġcolour": 7400,
      "Ġtiss": 7401,
      "ilty": 7402,
      "ĠTrib": 7403,
      "Ġpointed": 7404,
      "Ġtab": 7405,
      "ĠNAS": 7406,
      "Ġsituations": 7407,
      "oln": 7408,
      "ĠDO": 7409,
      "Ġnormally": 7410,
      "Ġvirtual": 7411,
      "raid": 7412,
      "Ġchat": 7413,
      "ĠMain": 7414,
      "Ġsaved": 7415,
      "Ġsmell": 7416,
      "enth": 7417,
      "Ġexec": 7418,
      "Ġattached": 7419,
      "ounter": 7420,
      "ington": 7421,
      "ppers": 7422,
      "oga": 7423,
      "ĠSmall": 7424,
      "Ġlinked": 7425,
      "ĠSn": 7426,
      "ĠPS": 7427,
      "Ġsending": 7428,
      "Ġroof": 7429,
      "Ġelev": 7430,
      "Ġrevolution": 7431,
      "writ": 7432,
      "Ġsubsequ": 7433,
      "Ġfulf": 7434,
      "Ġrating": 7435,
      "Ġvend": 7436,
      "Ġsymbol": 7437,
      "pected": 7438,
      "Ġluck": 7439,
      "roit": 7440,
      "ĠStudent": 7441,
      "Ġbreath": 7442,
      "ĠMedicine": 7443,
      "Ġ05": 7444,
      "Ġ07": 7445,
      "ifer": 7446,
      "nam": 7447,
      "ilton": 7448,
      "ĠRun": 7449,
      "Ġshift": 7450,
      "Ġanymore": 7451,
      "Ġskill": 7452,
      "ĠHaving": 7453,
      "Ġefficiency": 7454,
      "Ġmarked": 7455,
      "Ġdrawing": 7456,
      "ĠAtlanta": 7457,
      "Ġattempts": 7458,
      "Ġprimarily": 7459,
      "Ġcapture": 7460,
      "iences": 7461,
      "ĠTry": 7462,
      "Ġcoal": 7463,
      "ĠJord": 7464,
      "Ġtrading": 7465,
      "Ġobtained": 7466,
      "missions": 7467,
      "Ġquarterback": 7468,
      "Ġprotein": 7469,
      "Ġtank": 7470,
      "ĠRemember": 7471,
      "Ġtested": 7472,
      "tw": 7473,
      "ĠCivil": 7474,
      "ĠWorks": 7475,
      "bre": 7476,
      "Ġhole": 7477,
      "ĠEag": 7478,
      "Ġstruck": 7479,
      "ĠSC": 7480,
      "ĠMembers": 7481,
      "........": 7482,
      "Ġpublication": 7483,
      "Ġera": 7484,
      "liament": 7485,
      "Ġaccused": 7486,
      "Ġresulting": 7487,
      "Ġsuffered": 7488,
      "Ġsmile": 7489,
      "sters": 7490,
      "ĠUr": 7491,
      "300": 7492,
      "Ġawarded": 7493,
      "Ġ1980": 7494,
      "Ġsoldiers": 7495,
      "ĠWelcome": 7496,
      "ĠSav": 7497,
      "ĠPitt": 7498,
      "eman": 7499,
      "Ġdefinition": 7500,
      "tain": 7501,
      "Ġacting": 7502,
      "Ġassessment": 7503,
      "ĠNon": 7504,
      "ĠTrust": 7505,
      "Ġprinted": 7506,
      "ĠBritain": 7507,
      "Ġsorry": 7508,
      "Ġpapers": 7509,
      "ĠDisney": 7510,
      "rition": 7511,
      "Ġstone": 7512,
      "ĠPow": 7513,
      "ifies": 7514,
      "reprene": 7515,
      "including": 7516,
      "Ġsplit": 7517,
      "osa": 7518,
      "ĠDrive": 7519,
      "Ġsuddenly": 7520,
      "asant": 7521,
      "earing": 7522,
      "ĠIII": 7523,
      "ĠBry": 7524,
      "Ġopinions": 7525,
      "bi": 7526,
      "Ġshouldn": 7527,
      "Ġmagn": 7528,
      "Ġscenes": 7529,
      "Ġpin": 7530,
      "ĠPenns": 7531,
      "bro": 7532,
      "ĠFather": 7533,
      "ĠSoftware": 7534,
      "Ġexternal": 7535,
      "ĠJam": 7536,
      "Ġsessions": 7537,
      "Ġdomain": 7538,
      "celer": 7539,
      "Ġprotected": 7540,
      "All": 7541,
      "Ġpatterns": 7542,
      "Ġwireless": 7543,
      "Ġ1997": 7544,
      "mates": 7545,
      "Ġ04": 7546,
      "iece": 7547,
      "ĠClinton": 7548,
      "Ġpace": 7549,
      "Ġsevent": 7550,
      "Ġdrinking": 7551,
      "iamond": 7552,
      "ĠBrook": 7553,
      "ĠFR": 7554,
      "ĠLewis": 7555,
      "ults": 7556,
      "Ġsuccessfully": 7557,
      "heast": 7558,
      "etary": 7559,
      "ounded": 7560,
      "ĠTal": 7561,
      "ĠPrem": 7562,
      "ĠCab": 7563,
      "Ġ06": 7564,
      "ĠNEW": 7565,
      "anke": 7566,
      "Ġcontrols": 7567,
      "Ġassets": 7568,
      "erts": 7569,
      "atell": 7570,
      "ĠHIV": 7571,
      "ĠJr": 7572,
      "Ġexperiment": 7573,
      "Ġgranted": 7574,
      "ĠTen": 7575,
      "Ġbottle": 7576,
      "enger": 7577,
      "rated": 7578,
      "Ġentr": 7579,
      "ĠArm": 7580,
      "abeth": 7581,
      "Ġacid": 7582,
      "Ġprogramming": 7583,
      "Ġcontemporary": 7584,
      "reland": 7585,
      "ĠHoly": 7586,
      "Ġevolution": 7587,
      "pes": 7588,
      "uties": 7589,
      "Ġengage": 7590,
      "Ġseats": 7591,
      "ĠAmong": 7592,
      "fin": 7593,
      "Ġunderst": 7594,
      "aza": 7595,
      "Ġforever": 7596,
      "ĠWas": 7597,
      "Ġliquid": 7598,
      "uis": 7599,
      "Ġmile": 7600,
      "uality": 7601,
      "Ġbreaking": 7602,
      "ĠResp": 7603,
      "Ġbomb": 7604,
      "bury": 7605,
      "imore": 7606,
      "hi": 7607,
      "Ġencouraged": 7608,
      "razil": 7609,
      "Ġrum": 7610,
      "Ġshoulder": 7611,
      "ĠCase": 7612,
      "Ġdesigner": 7613,
      "Ġ02": 7614,
      "letter": 7615,
      "ĠOklahoma": 7616,
      "ĠFall": 7617,
      "ĠPolit": 7618,
      "ĠCommer": 7619,
      "Ġwidely": 7620,
      "Ġcontribute": 7621,
      "inking": 7622,
      "Ġtwenty": 7623,
      "Ġjunior": 7624,
      "ĠDE": 7625,
      "Ġclar": 7626,
      "ĠFinancial": 7627,
      "Ġwave": 7628,
      "ĠTravel": 7629,
      "Ġmachines": 7630,
      "Ġblocks": 7631,
      "ĠLt": 7632,
      "Ġpharm": 7633,
      "Ġloud": 7634,
      "ĠTraining": 7635,
      "Ġunus": 7636,
      "Ġvolunteers": 7637,
      "Ġassume": 7638,
      "Ġmonitoring": 7639,
      "uter": 7640,
      "izer": 7641,
      "Ġpainting": 7642,
      "Ġtransportation": 7643,
      "Ġsucceed": 7644,
      "Ġfasc": 7645,
      "ĠTax": 7646,
      "Ġexplan": 7647,
      "Ġinjured": 7648,
      "Â°": 7649,
      "orable": 7650,
      "ulating": 7651,
      "olit": 7652,
      "Ġpresidential": 7653,
      "Ġbrands": 7654,
      "ĠCorporation": 7655,
      "ĠPennsylvania": 7656,
      "RL": 7657,
      "ani": 7658,
      "ĠStore": 7659,
      "Ġclimb": 7660,
      "ĠRecent": 7661,
      "oil": 7662,
      "Ġlad": 7663,
      "Ġfindings": 7664,
      "Ġma": 7665,
      "ĠToronto": 7666,
      "person": 7667,
      "Ġ42": 7668,
      "Le": 7669,
      "Ġrequests": 7670,
      "zer": 7671,
      "ĠBern": 7672,
      "anes": 7673,
      "olis": 7674,
      "Ġeveryday": 7675,
      "Ġproviders": 7676,
      "CD": 7677,
      "ĠWould": 7678,
      "ĠCountry": 7679,
      "Ġvisited": 7680,
      "ĠBuilding": 7681,
      "war": 7682,
      "ĠEs": 7683,
      "Ġvul": 7684,
      "Ġvital": 7685,
      "ints": 7686,
      "Ġsubsid": 7687,
      "lee": 7688,
      "oty": 7689,
      "ĠFac": 7690,
      "ĠEnt": 7691,
      "Ġreplacement": 7692,
      "ĠNorthern": 7693,
      "ĠEastern": 7694,
      "ĠLinux": 7695,
      "Ã¡": 7696,
      "Ġpepper": 7697,
      "Ġcompete": 7698,
      "Ġempty": 7699,
      "Ġfranch": 7700,
      "Ġintegrated": 7701,
      "ĠTick": 7702,
      "etts": 7703,
      "Ġsees": 7704,
      "Ġreturning": 7705,
      "Ġaircraft": 7706,
      "rific": 7707,
      "ĠCru": 7708,
      "Ġillness": 7709,
      "97": 7710,
      "Ġending": 7711,
      "Ġconstant": 7712,
      "Ġfalling": 7713,
      "ĠBow": 7714,
      "Ġfilter": 7715,
      "Ġenemy": 7716,
      "GA": 7717,
      "Ġicon": 7718,
      "Ġbrill": 7719,
      "Ġstring": 7720,
      "ĠMaryland": 7721,
      "Ġpermanent": 7722,
      "Ġcomputers": 7723,
      "ĠLatin": 7724,
      "ĠDallas": 7725,
      "RS": 7726,
      "ĠPerform": 7727,
      "athy": 7728,
      "ĠMill": 7729,
      "olec": 7730,
      "Un": 7731,
      "Ġtroops": 7732,
      "Ġopposite": 7733,
      "front": 7734,
      "Ġnewly": 7735,
      "ĠRequ": 7736,
      "Ġengaged": 7737,
      "then": 7738,
      "Ġformal": 7739,
      "ĠMA": 7740,
      "Ġcarrying": 7741,
      "??": 7742,
      "page": 7743,
      "iders": 7744,
      "ĠPriv": 7745,
      "Ġcomponent": 7746,
      "ĠSilver": 7747,
      "urse": 7748,
      "ĠBall": 7749,
      "whel": 7750,
      "Ġgiant": 7751,
      "65": 7752,
      "intend": 7753,
      "Ġpayments": 7754,
      "Ġclothing": 7755,
      "Ġcategories": 7756,
      "Ġsheet": 7757,
      "Ġ03": 7758,
      "ĠPhys": 7759,
      "Ġstations": 7760,
      "upid": 7761,
      "Ġputs": 7762,
      "Ġfing": 7763,
      "Ġdivid": 7764,
      "ĠIreland": 7765,
      "ervations": 7766,
      "Ġimproving": 7767,
      "Be": 7768,
      "Ġlatter": 7769,
      "Ġ55": 7770,
      "Ġlimits": 7771,
      "ĠVisit": 7772,
      "essel": 7773,
      "Ġimplementation": 7774,
      "Ġdrawn": 7775,
      "Ġsustainable": 7776,
      "iley": 7777,
      "Ġreduction": 7778,
      "Ġafraid": 7779,
      "GE": 7780,
      "Ġcausing": 7781,
      "Ġinvolving": 7782,
      "Ġmoral": 7783,
      "Ġmixture": 7784,
      "Ġprecise": 7785,
      "oked": 7786,
      "Ġjudgment": 7787,
      "Ġbirds": 7788,
      "Ġplain": 7789,
      "Ġstro": 7790,
      "incoln": 7791,
      "aturally": 7792,
      "Ġsuffering": 7793,
      "Ġchampionship": 7794,
      "Ġcombat": 7795,
      "ĠPo": 7796,
      "ĠRus": 7797,
      "Ġads": 7798,
      "2009": 7799,
      "Ġrig": 7800,
      "bell": 7801,
      "Ġstuck": 7802,
      "ĠEst": 7803,
      "Ġdevelopers": 7804,
      "annels": 7805,
      "Ġ1996": 7806,
      "OO": 7807,
      "ĠTro": 7808,
      "Ġpersonnel": 7809,
      "Ġreputation": 7810,
      "ped": 7811,
      "ĠSel": 7812,
      "abama": 7813,
      "Ġ150": 7814,
      "ĠEliz": 7815,
      "umps": 7816,
      "Ġadmitted": 7817,
      "ĠKelly": 7818,
      "Ġlies": 7819,
      "Ġbags": 7820,
      "Ġaccomplish": 7821,
      "Ġdiverse": 7822,
      "ĠCapt": 7823,
      "ĠNic": 7824,
      "Ġ1995": 7825,
      "ĠWebs": 7826,
      "ĠExpress": 7827,
      "Ġcreates": 7828,
      "Ġfounded": 7829,
      "Com": 7830,
      "Ġoven": 7831,
      "Ġlaid": 7832,
      "Ġeligible": 7833,
      "Pl": 7834,
      "heim": 7835,
      "ĠMemorial": 7836,
      "Ġembr": 7837,
      "Ġinterior": 7838,
      "Ġintent": 7839,
      "Ġinqu": 7840,
      "ĠIrish": 7841,
      "da": 7842,
      "ĠSir": 7843,
      "Ġvoting": 7844,
      "ĠEvent": 7845,
      "Ġoperate": 7846,
      "ĠVegas": 7847,
      "ĠFact": 7848,
      "Ġtrig": 7849,
      "Ġstayed": 7850,
      "ĠColumbia": 7851,
      "bles": 7852,
      "Ġblind": 7853,
      "ĠJordan": 7854,
      "Ġstyles": 7855,
      "amework": 7856,
      "ĠServer": 7857,
      "ĠDetroit": 7858,
      "Ġcontrolled": 7859,
      "Ġexpansion": 7860,
      "Ġexistence": 7861,
      "acc": 7862,
      "ĠMarc": 7863,
      "Ġaddresses": 7864,
      "otton": 7865,
      "ĠShould": 7866,
      "Ġreact": 7867,
      "ILL": 7868,
      "izza": 7869,
      "Ġchallenging": 7870,
      "2010": 7871,
      "pson": 7872,
      "remony": 7873,
      "ĠBrazil": 7874,
      "ĠGolden": 7875,
      "pir": 7876,
      "Ġproven": 7877,
      "oken": 7878,
      "mal": 7879,
      "Ġdining": 7880,
      "epend": 7881,
      "Ġchances": 7882,
      "Ġeverywhere": 7883,
      "Ġbell": 7884,
      "inity": 7885,
      "Ġthorough": 7886,
      "Ġfarmers": 7887,
      "ĠDu": 7888,
      "Ġconvenient": 7889,
      "Ġtip": 7890,
      "Ġvacc": 7891,
      "Ġol": 7892,
      "ĠAgency": 7893,
      "achus": 7894,
      "Ġavailability": 7895,
      "ura": 7896,
      "ĠComments": 7897,
      "ĠRoman": 7898,
      "case": 7899,
      "ĠDark": 7900,
      "Ġspark": 7901,
      "Ġfundamental": 7902,
      "Ġtelephone": 7903,
      "Ġfraud": 7904,
      "',": 7905,
      "Ġbab": 7906,
      "acher": 7907,
      "isted": 7908,
      "Ġgovernments": 7909,
      "ĠEU": 7910,
      "Ġstrategic": 7911,
      "Ġcoc": 7912,
      "ĠSpain": 7913,
      "from": 7914,
      "Ġplot": 7915,
      "Ġdad": 7916,
      "child": 7917,
      "Ġrice": 7918,
      "cover": 7919,
      "UD": 7920,
      "Ġstruggle": 7921,
      "ĠOlympic": 7922,
      "Ġans": 7923,
      "Ġtone": 7924,
      "oured": 7925,
      "Ġstead": 7926,
      "anted": 7927,
      "Ġeggs": 7928,
      "Ġdynamic": 7929,
      "orne": 7930,
      "Ġmerch": 7931,
      "Ġguilty": 7932,
      "ĠCP": 7933,
      "Ġaspect": 7934,
      "Ġrepresented": 7935,
      "Ġwarning": 7936,
      "idance": 7937,
      "Ġhabit": 7938,
      "Ġrising": 7939,
      "Ġperforming": 7940,
      "Ġvari": 7941,
      "ressed": 7942,
      "Ġbehalf": 7943,
      "jo": 7944,
      "ĠBud": 7945,
      "Ġboards": 7946,
      "cr": 7947,
      "ĠForum": 7948,
      "She": 7949,
      "Ġtrained": 7950,
      "Ġpotentially": 7951,
      "Ġske": 7952,
      "icide": 7953,
      "Ġdollar": 7954,
      "Ġcute": 7955,
      "Ġbutt": 7956,
      "Ġ46": 7957,
      "Ġpresents": 7958,
      "ocation": 7959,
      "ĠGuard": 7960,
      "essee": 7961,
      "Ġheaven": 7962,
      "Ġconservative": 7963,
      "Ġloose": 7964,
      "ĠPH": 7965,
      "ĠGreek": 7966,
      "Ġrecommendations": 7967,
      "Ġpowers": 7968,
      "ĠRoll": 7969,
      "Ġalt": 7970,
      "Ġroot": 7971,
      "Ġarmy": 7972,
      "uous": 7973,
      "Ġmerely": 7974,
      "ĠEditor": 7975,
      "Ġjoining": 7976,
      "lled": 7977,
      "Ġfestival": 7978,
      "worth": 7979,
      "ĠJu": 7980,
      "ĠNBA": 7981,
      "Ġpasses": 7982,
      "rete": 7983,
      "mann": 7984,
      "Ġmarks": 7985,
      "ĠLine": 7986,
      "Ġphones": 7987,
      "Ġparticipation": 7988,
      "ĠAnnual": 7989,
      "Ġcertific": 7990,
      "lements": 7991,
      "AND": 7992,
      "Ġease": 7993,
      "ĠLas": 7994,
      "Ġsearching": 7995,
      "ĠAnderson": 7996,
      "ĠStory": 7997,
      "ĠAlabama": 7998,
      "Ġfeelings": 7999,
      "Ġcenters": 8000,
      "ĠMoore": 8001,
      "Ġloans": 8002,
      "gent": 8003,
      "Ġharder": 8004,
      "Ġrecognition": 8005,
      "Ġstronger": 8006,
      "ĠAsian": 8007,
      "ĠHistor": 8008,
      "ĠBaltimore": 8009,
      "ormal": 8010,
      "acking": 8011,
      "Ġpriority": 8012,
      "Ġpremium": 8013,
      "Ġexpertise": 8014,
      "ĠHay": 8015,
      "Ġadmit": 8016,
      "Ġrecipes": 8017,
      "Ġpushed": 8018,
      "ĠDeb": 8019,
      "Ġopposed": 8020,
      "85": 8021,
      "ortion": 8022,
      "Ġinvention": 8023,
      "ĠMother": 8024,
      "ĠLink": 8025,
      "umer": 8026,
      "Ġintention": 8027,
      "Ġadopted": 8028,
      "aper": 8029,
      "ĠProp": 8030,
      "inte": 8031,
      "Ġsizes": 8032,
      "Ġevol": 8033,
      "Ġnarr": 8034,
      "ĠHell": 8035,
      "Ġrecover": 8036,
      "Ġultimate": 8037,
      "ĠFA": 8038,
      "ĠEX": 8039,
      "Ġachieved": 8040,
      "Ġentitled": 8041,
      "bridge": 8042,
      "Ġabsor": 8043,
      "iac": 8044,
      "lections": 8045,
      "oen": 8046,
      "Ġlect": 8047,
      "Ġhumans": 8048,
      "ĠCro": 8049,
      "Ġleather": 8050,
      "Ġproducing": 8051,
      "Ġcleaning": 8052,
      "ĠProm": 8053,
      "Ġraw": 8054,
      "Ġcontributions": 8055,
      "Ġdust": 8056,
      "ĠProdu": 8057,
      "making": 8058,
      "Ġreliable": 8059,
      "Ġprotest": 8060,
      "ĠMir": 8061,
      "ogether": 8062,
      "Ġbridge": 8063,
      "ouri": 8064,
      "ĠBad": 8065,
      "achusetts": 8066,
      "yes": 8067,
      "Ġvit": 8068,
      "owned": 8069,
      "Ġanswered": 8070,
      "stery": 8071,
      "ĠSource": 8072,
      "Ġflag": 8073,
      "Ġcourts": 8074,
      "Ġadventure": 8075,
      "ĠGre": 8076,
      "Ġmatches": 8077,
      "Ġscores": 8078,
      "Ġboss": 8079,
      "ĠGarden": 8080,
      "Ġfacilit": 8081,
      "Ġisol": 8082,
      "ĠRoy": 8083,
      "Ġraising": 8084,
      "ĠEmer": 8085,
      "iot": 8086,
      "Ġlapt": 8087,
      "Ġhung": 8088,
      "ĠLLC": 8089,
      "Ġchest": 8090,
      "kel": 8091,
      "Ġunem": 8092,
      "Ġbid": 8093,
      "Ġinterviews": 8094,
      "Ġphr": 8095,
      "Ġ65": 8096,
      "made": 8097,
      "ĠPu": 8098,
      "Ġrecon": 8099,
      "Ġpink": 8100,
      "ĠChapter": 8101,
      "Ġdecent": 8102,
      "ĠOrigin": 8103,
      "Ġamounts": 8104,
      "Ġsought": 8105,
      "Ġrecru": 8106,
      "bow": 8107,
      "Ġnations": 8108,
      "Ġminister": 8109,
      "Ġforest": 8110,
      "Ġinstitution": 8111,
      "uct": 8112,
      "Ġscheme": 8113,
      "ĠCooper": 8114,
      "ĠVery": 8115,
      "Ġannouncement": 8116,
      "Ġrequested": 8117,
      "Ġhidden": 8118,
      "Ġmemories": 8119,
      "Ġfaced": 8120,
      "Ġblow": 8121,
      "Ġpleasure": 8122,
      "tra": 8123,
      "ĠShare": 8124,
      "Ġsixth": 8125,
      "ĠStock": 8126,
      "Ġliterally": 8127,
      "ĠElizabeth": 8128,
      "lers": 8129,
      "Ġpocket": 8130,
      "Ġsomehow": 8131,
      "otted": 8132,
      "Ġmagic": 8133,
      "ĠPA": 8134,
      "ceived": 8135,
      "tes": 8136,
      "ĠPut": 8137,
      "ĠLincoln": 8138,
      "icking": 8139,
      "ools": 8140,
      "Ġauthent": 8141,
      "UL": 8142,
      "Ġflying": 8143,
      "ruption": 8144,
      "ĠWithout": 8145,
      "Ġconsideration": 8146,
      "Ġcolleagues": 8147,
      "Ġjur": 8148,
      "ĠUtah": 8149,
      "Ġracing": 8150,
      "Ġspots": 8151,
      "ĠMarketing": 8152,
      "ĠStandard": 8153,
      "Ġresponded": 8154,
      "ĠTherefore": 8155,
      "ĠPhill": 8156,
      "ĠIndiana": 8157,
      "Ġ39": 8158,
      "Ġgenerated": 8159,
      "Ġperformances": 8160,
      "ĠRen": 8161,
      "Ġfewer": 8162,
      "Ġretirement": 8163,
      "opher": 8164,
      "Ġoverwhel": 8165,
      "Ġcoaches": 8166,
      "Ġextension": 8167,
      "ĠResources": 8168,
      "Ġequival": 8169,
      "books": 8170,
      "ĠAccount": 8171,
      "ĠMassachusetts": 8172,
      "ĠSafety": 8173,
      "aud": 8174,
      "inth": 8175,
      "Ġmistake": 8176,
      "ERE": 8177,
      "Ġelections": 8178,
      "Ġcollaboration": 8179,
      "Ġintense": 8180,
      "Ġheading": 8181,
      "Ġtrends": 8182,
      "Ġanx": 8183,
      "Ġgentle": 8184,
      "riers": 8185,
      "ĠCub": 8186,
      "ĠBuff": 8187,
      "Ġlegend": 8188,
      "Ġstrongly": 8189,
      "days": 8190,
      "Ġriding": 8191,
      "ĠVers": 8192,
      "ĠBeing": 8193,
      "ĠKentucky": 8194,
      "400": 8195,
      "ĠOs": 8196,
      "Ġreducing": 8197,
      "Ġtired": 8198,
      "Ġremem": 8199,
      "Ġtechnique": 8200,
      "Ġresistance": 8201,
      "ĠMov": 8202,
      "ĠCamer": 8203,
      "issions": 8204,
      "Ġtransp": 8205,
      "Ġdestination": 8206,
      "Ġindicate": 8207,
      "Ġchampion": 8208,
      "osc": 8209,
      "Ġwake": 8210,
      "Ġunw": 8211,
      "Ġmargin": 8212,
      "Ġmainly": 8213,
      "ĠIsraeli": 8214,
      "Ġauto": 8215,
      "Ġlighting": 8216,
      "usal": 8217,
      "oval": 8218,
      "IE": 8219,
      "Ġstir": 8220,
      "Ġsentence": 8221,
      "Ġgallery": 8222,
      "atics": 8223,
      "Ġstrict": 8224,
      "ART": 8225,
      "Ġsuperior": 8226,
      "ĠSpec": 8227,
      "ĠEveryone": 8228,
      "Ġcups": 8229,
      "ĠFer": 8230,
      "Ġrepresentative": 8231,
      "ĠMcG": 8232,
      "Ġtum": 8233,
      "Ġbands": 8234,
      "Ġdriven": 8235,
      "Ġcopies": 8236,
      "FA": 8237,
      "Ġbass": 8238,
      "ĠGro": 8239,
      "Ġclubs": 8240,
      "Ġhandling": 8241,
      "haust": 8242,
      "ership": 8243,
      "Ġblank": 8244,
      "ĠPatrick": 8245,
      "ĠJudge": 8246,
      "iate": 8247,
      "ĠCL": 8248,
      "inding": 8249,
      "ishop": 8250,
      "Ġplane": 8251,
      "Ġindicated": 8252,
      "IST": 8253,
      "Ġclosing": 8254,
      "Ġappointed": 8255,
      "ĠMatthew": 8256,
      "ĠRegist": 8257,
      "Ġlets": 8258,
      "Ġmanaging": 8259,
      "Ġvolunteer": 8260,
      "Ġwithd": 8261,
      "Ġsuggestions": 8262,
      "Ġhosted": 8263,
      "ĠNO": 8264,
      "Ġexplos": 8265,
      "isp": 8266,
      "hour": 8267,
      "Ġhadn": 8268,
      "Ġguidelines": 8269,
      "Ġarrive": 8270,
      "Ġunknown": 8271,
      "Ġfinger": 8272,
      "ĠSant": 8273,
      "etry": 8274,
      "ĠTennessee": 8275,
      "ĠMember": 8276,
      "ĠCR": 8277,
      "ĠCert": 8278,
      "Ġentering": 8279,
      "amps": 8280,
      "ĠAnthony": 8281,
      "ĠSem": 8282,
      "olar": 8283,
      "Ġextract": 8284,
      "Ġpitc": 8285,
      "Ġsections": 8286,
      "imp": 8287,
      "ĠCreek": 8288,
      "ighth": 8289,
      "Ġaccessible": 8290,
      "Ġexceed": 8291,
      "Ġassists": 8292,
      "Ġdispl": 8293,
      "Ġtact": 8294,
      "unicip": 8295,
      "Ġgenerate": 8296,
      "ĠBarack": 8297,
      "ĠAllen": 8298,
      "ĠMorgan": 8299,
      "sen": 8300,
      "Ġ800": 8301,
      "ĠPhone": 8302,
      "ĠNeed": 8303,
      "uine": 8304,
      "Ġaver": 8305,
      "Ġstupid": 8306,
      "Ġphenomen": 8307,
      "Ġunderstood": 8308,
      "Ġlin": 8309,
      "ĠBudd": 8310,
      "Ġaband": 8311,
      "Ġmoist": 8312,
      "PC": 8313,
      "wich": 8314,
      "Ġparticipating": 8315,
      "isa": 8316,
      "Ġfirms": 8317,
      "Ġattitude": 8318,
      "Ġescape": 8319,
      "Ġtape": 8320,
      "ista": 8321,
      "Ġquote": 8322,
      "onymous": 8323,
      "Ġsouthern": 8324,
      "Ġchannels": 8325,
      "Ġjail": 8326,
      "ĠSarah": 8327,
      "Ġ(\"": 8328,
      "ĠNumber": 8329,
      "Ġadequ": 8330,
      "Ġinspiration": 8331,
      "style": 8332,
      "ĠRef": 8333,
      "Ġcapabilities": 8334,
      "ĠLib": 8335,
      "ĠZeal": 8336,
      "ĠFollowing": 8337,
      "Ġlandscape": 8338,
      "QL": 8339,
      "orous": 8340,
      "ĠLooking": 8341,
      "Ġbaking": 8342,
      "ĠHur": 8343,
      "ĠFive": 8344,
      "Ġrebounds": 8345,
      "Ġintellectual": 8346,
      "Ġbrilliant": 8347,
      "zes": 8348,
      "isms": 8349,
      "Ġprize": 8350,
      "Ġessentially": 8351,
      "ĠSelect": 8352,
      "Ġwondering": 8353,
      "Ġvulner": 8354,
      "De": 8355,
      "ĠNatural": 8356,
      "Ġdiscussions": 8357,
      "acked": 8358,
      "ĠStew": 8359,
      "Ġfinance": 8360,
      "Ġnights": 8361,
      "Ġthousand": 8362,
      "ĠAustin": 8363,
      "Ġcareful": 8364,
      "Ġanniversary": 8365,
      "Ġconcerning": 8366,
      ")||": 8367,
      "Our": 8368,
      "olds": 8369,
      "char": 8370,
      "BM": 8371,
      "ĠSound": 8372,
      "Ġrecall": 8373,
      "ĠClin": 8374,
      "Ġhosting": 8375,
      "ĠPDF": 8376,
      "Ġequally": 8377,
      "lock": 8378,
      "Ġsoil": 8379,
      "athered": 8380,
      "aste": 8381,
      "To": 8382,
      "Ġdisplayed": 8383,
      "Ġexposed": 8384,
      "Ġcovering": 8385,
      "Ġtrips": 8386,
      "Ġ64": 8387,
      "Ġblogs": 8388,
      "TE": 8389,
      "Tube": 8390,
      "Ġpackages": 8391,
      "ĠDefense": 8392,
      "rell": 8393,
      "Ġbills": 8394,
      "Ġdismiss": 8395,
      "raction": 8396,
      "ĠDead": 8397,
      "Ġproved": 8398,
      "ĠCancer": 8399,
      "Ġdistributed": 8400,
      "Ġtor": 8401,
      "ĠSix": 8402,
      "ĠBrother": 8403,
      "Ġfired": 8404,
      "pton": 8405,
      "ĠPen": 8406,
      "rowse": 8407,
      "Ġcos": 8408,
      "ĠMarsh": 8409,
      "ĠDod": 8410,
      "Ġuniform": 8411,
      "ITY": 8412,
      "overs": 8413,
      "ĠCas": 8414,
      "Ġsubjects": 8415,
      "Ġsmoke": 8416,
      "Ġswing": 8417,
      "Ġjewel": 8418,
      "ĠSep": 8419,
      "Ġupload": 8420,
      "ĠSeason": 8421,
      "Ġocean": 8422,
      "ĠHart": 8423,
      "Ġranked": 8424,
      "ĠQueen": 8425,
      "Ġvessel": 8426,
      "Ġassociation": 8427,
      "Ġguns": 8428,
      "Ġinch": 8429,
      "Ġrural": 8430,
      "Ġvisible": 8431,
      "Ġaffordable": 8432,
      "ĠDer": 8433,
      "ĠForest": 8434,
      "64": 8435,
      "UM": 8436,
      "Ġsaving": 8437,
      "Star": 8438,
      "ĠFilm": 8439,
      "ogen": 8440,
      "Ġregardless": 8441,
      "asted": 8442,
      "Ġelsewhere": 8443,
      "Ġliterature": 8444,
      "Ġscan": 8445,
      "ĠBuy": 8446,
      "Ġpowder": 8447,
      "Ġ1970": 8448,
      "Ġregions": 8449,
      "Ġcookies": 8450,
      "Ġunex": 8451,
      "Ġfurniture": 8452,
      "ĠUC": 8453,
      "ĠNations": 8454,
      "ĠHoward": 8455,
      "otten": 8456,
      "Ed": 8457,
      "Ġpipe": 8458,
      "ĠPalestin": 8459,
      "Ġinner": 8460,
      "Ġham": 8461,
      "ĠAction": 8462,
      "Ġworried": 8463,
      "Ġcontaining": 8464,
      "ĠSS": 8465,
      "Ġactor": 8466,
      "Ġconsequences": 8467,
      "AB": 8468,
      "ĠDream": 8469,
      "67": 8470,
      "ĠÃ": 8471,
      "Ġinitiative": 8472,
      "ĠSeveral": 8473,
      "ĠAge": 8474,
      "Ġknee": 8475,
      ").": 8476,
      "Ġprovision": 8477,
      "Ġdeeply": 8478,
      "Ġborrow": 8479,
      "ĠTalk": 8480,
      "Ġly": 8481,
      "Ġlosses": 8482,
      "Ġoblig": 8483,
      "Ġretired": 8484,
      "Ġqualified": 8485,
      "aping": 8486,
      "Ġinning": 8487,
      "eping": 8488,
      "Ġbars": 8489,
      "Ġlegit": 8490,
      "Ġcalendar": 8491,
      "ez": 8492,
      "Ġcomic": 8493,
      "ĠZealand": 8494,
      "icious": 8495,
      "Ġkiss": 8496,
      "Ġdecline": 8497,
      "Ġreprodu": 8498,
      "Ġimprovements": 8499,
      "Ġnomin": 8500,
      "Ġdisaster": 8501,
      "folio": 8502,
      "Ġveteran": 8503,
      "isdom": 8504,
      "ĠCOM": 8505,
      "ĠDNA": 8506,
      "Ġelectricity": 8507,
      "ĠNob": 8508,
      "Ġarchitecture": 8509,
      "Ġexhibition": 8510,
      "gel": 8511,
      "âĢĺ": 8512,
      "ĠMs": 8513,
      "Ġinteractive": 8514,
      "Ġclassroom": 8515,
      "Ġjuice": 8516,
      "ĠBat": 8517,
      "Ġroles": 8518,
      "Ġsolo": 8519,
      "Ġdepends": 8520,
      "ĠHarris": 8521,
      "Ġgained": 8522,
      "Ġbuff": 8523,
      "Ġcomparison": 8524,
      "Ġgraphics": 8525,
      "pport": 8526,
      "Ġlifestyle": 8527,
      "Ġdrama": 8528,
      "Ġceremony": 8529,
      "Ġtrem": 8530,
      "vard": 8531,
      "Ġ47": 8532,
      "Ġerrors": 8533,
      "ĠAnton": 8534,
      "oosing": 8535,
      "Ġpilot": 8536,
      "87": 8537,
      "Ġtasks": 8538,
      "Ġtraveling": 8539,
      "Ġobserved": 8540,
      "Ġpreferred": 8541,
      "Oh": 8542,
      "ĠChampionship": 8543,
      "clude": 8544,
      "ĠPrime": 8545,
      "words": 8546,
      "ĠVice": 8547,
      "Ġ44": 8548,
      "ĠLyn": 8549,
      "Ġconsumption": 8550,
      "Ġ;": 8551,
      "cribed": 8552,
      "ĠStation": 8553,
      "Ġwinners": 8554,
      "ĠDenver": 8555,
      "Ġexpenses": 8556,
      "Ġinvolves": 8557,
      "Ġconclusion": 8558,
      "ardens": 8559,
      "ĠSO": 8560,
      "Ġfalls": 8561,
      "ĠTheatre": 8562,
      "unes": 8563,
      "Ġdozen": 8564,
      "Ġcomplaint": 8565,
      "Ġinnovation": 8566,
      "Ġpill": 8567,
      "ĠHawai": 8568,
      "ĠRub": 8569,
      "ĠViet": 8570,
      "Ġsamples": 8571,
      "Ġasks": 8572,
      "Ġmeets": 8573,
      "Ġelectron": 8574,
      "ĠCredit": 8575,
      "Ġupgrade": 8576,
      "ila": 8577,
      "Ġfrustr": 8578,
      "Ġheavily": 8579,
      "Ġpod": 8580,
      "Ġaccord": 8581,
      "Ġacknowled": 8582,
      "Ġfranchise": 8583,
      "ĠCut": 8584,
      "ashes": 8585,
      "ounce": 8586,
      "Ġ1994": 8587,
      "ĠSquare": 8588,
      "fall": 8589,
      "Ġhyper": 8590,
      "ĠSwed": 8591,
      "Ġdrag": 8592,
      "Ġexists": 8593,
      "onic": 8594,
      "Ġcompare": 8595,
      "Ġguidance": 8596,
      "Ġopens": 8597,
      "Ġbrothers": 8598,
      "ĠShort": 8599,
      "Ġchairman": 8600,
      "rary": 8601,
      "ystem": 8602,
      "ĠFa": 8603,
      "holders": 8604,
      "power": 8605,
      "Ġchecked": 8606,
      "Ġpreparation": 8607,
      "Ġrental": 8608,
      "ko": 8609,
      "ĠMap": 8610,
      "ĠPract": 8611,
      "Ġinitially": 8612,
      "Ġboxes": 8613,
      "Ġunusual": 8614,
      "ĠDor": 8615,
      "Ġclim": 8616,
      "Ġaccessories": 8617,
      "ĠName": 8618,
      "visor": 8619,
      "owed": 8620,
      "Ġdiabetes": 8621,
      "icity": 8622,
      "ĠBooks": 8623,
      ".-": 8624,
      "ĠDur": 8625,
      "Ġru": 8626,
      "ĠMissouri": 8627,
      "Ġstaying": 8628,
      "89": 8629,
      "Ġhip": 8630,
      "Ġstored": 8631,
      "Ġphotography": 8632,
      "Ġmanufacturers": 8633,
      "Ġlady": 8634,
      "Ġsinger": 8635,
      "Ġappointment": 8636,
      "Ġargue": 8637,
      "ĠEmail": 8638,
      "Ġsurvive": 8639,
      "Ġclock": 8640,
      "Ġsomebody": 8641,
      "ieties": 8642,
      "Ġdrives": 8643,
      "ĠMom": 8644,
      "Ġconstit": 8645,
      "Ġsensitive": 8646,
      "ĠAvailable": 8647,
      "Book": 8648,
      "itis": 8649,
      "ĠRos": 8650,
      "Ġsecondary": 8651,
      "secutive": 8652,
      "ĠWebsite": 8653,
      "Ġsolve": 8654,
      "ĠBloom": 8655,
      "Ġtort": 8656,
      "ĠClark": 8657,
      "ĠAst": 8658,
      "ĠOil": 8659,
      "Ġscream": 8660,
      "Ġshell": 8661,
      "ospitals": 8662,
      "ĠAttorney": 8663,
      "Ġski": 8664,
      "ĠPsych": 8665,
      "Ġacceler": 8666,
      "ĠBeck": 8667,
      "Ġliberal": 8668,
      "gov": 8669,
      "ĠTrade": 8670,
      "Ġphilosophy": 8671,
      "stract": 8672,
      "Ġgorge": 8673,
      "acular": 8674,
      "world": 8675,
      "ĠAh": 8676,
      "ĠSales": 8677,
      "Ġwhenever": 8678,
      "Ġlessons": 8679,
      "Ġlanguages": 8680,
      "Ġcontracts": 8681,
      "RC": 8682,
      "ds": 8683,
      "bits": 8684,
      "Ġreaching": 8685,
      "this": 8686,
      "Ġintroduction": 8687,
      "ĠRh": 8688,
      "Ġpushing": 8689,
      "Ġdesper": 8690,
      "Ġprivile": 8691,
      "ĠUser": 8692,
      "olt": 8693,
      "Ġshops": 8694,
      "Ġcomprom": 8695,
      "Ġdramatic": 8696,
      "ĠEnvironmental": 8697,
      "Ġgreatly": 8698,
      "Ġrefused": 8699,
      "ĠType": 8700,
      "Ġweapon": 8701,
      "Ġofficially": 8702,
      "Ġapplicable": 8703,
      "Ġhotels": 8704,
      "stal": 8705,
      "ĠKir": 8706,
      "ĠYanke": 8707,
      "Ġsquad": 8708,
      "aning": 8709,
      "Ġmad": 8710,
      "ĠAth": 8711,
      "Ġrib": 8712,
      "Ġthrew": 8713,
      "ami": 8714,
      "Ġinstruction": 8715,
      "who": 8716,
      "Ġcasual": 8717,
      "Ġtheater": 8718,
      "Ġcoup": 8719,
      "Ġcameras": 8720,
      "Ġassigned": 8721,
      "Ġgovernor": 8722,
      "Ġmanufacturer": 8723,
      "Ġreven": 8724,
      "Ġdeploy": 8725,
      "Ġcriteria": 8726,
      "ĠGallery": 8727,
      "atellite": 8728,
      "ĠCav": 8729,
      "Ġdesired": 8730,
      "ahoo": 8731,
      "ĠReturn": 8732,
      "iag": 8733,
      "ĠCome": 8734,
      "ĠJews": 8735,
      "giving": 8736,
      "ĠMotor": 8737,
      ".;": 8738,
      "mers": 8739,
      "uters": 8740,
      "Ġ43": 8741,
      "Ġsurve": 8742,
      "iro": 8743,
      "ĠBan": 8744,
      "Ġproducer": 8745,
      "Ġeleg": 8746,
      "phones": 8747,
      "Ġdenied": 8748,
      "Ġmob": 8749,
      "icut": 8750,
      "Ġgonna": 8751,
      "Ġshock": 8752,
      "Ġsuitable": 8753,
      "Ġshirt": 8754,
      "Ġconnections": 8755,
      "ĠKorea": 8756,
      "Ġnorthern": 8757,
      "ALL": 8758,
      "ĠHim": 8759,
      "intage": 8760,
      "Ġviewing": 8761,
      "rite": 8762,
      "ĠALL": 8763,
      "ĠCou": 8764,
      "ĠShop": 8765,
      "blog": 8766,
      "Ġdreams": 8767,
      "Ġraces": 8768,
      "ĠPersonal": 8769,
      "Se": 8770,
      "ĠSab": 8771,
      "Ġyard": 8772,
      "Ġmanagers": 8773,
      "Ġentreprene": 8774,
      "Ġaddressed": 8775,
      "Ġincredibly": 8776,
      "ĠCra": 8777,
      "onder": 8778,
      "veland": 8779,
      "itionally": 8780,
      "Ġterrible": 8781,
      "viously": 8782,
      "Ġbuck": 8783,
      "engers": 8784,
      "Ġdescribes": 8785,
      "ĠOwn": 8786,
      "ĠMethod": 8787,
      "ĠJess": 8788,
      "ologists": 8789,
      "ĠYouTube": 8790,
      "Ġpersonality": 8791,
      "Ġcontributed": 8792,
      "Ġwaters": 8793,
      "ĠPict": 8794,
      "ceeds": 8795,
      "erving": 8796,
      "Ġattractive": 8797,
      "tery": 8798,
      "ĠHold": 8799,
      "HT": 8800,
      "iah": 8801,
      "ICE": 8802,
      "Ġpig": 8803,
      "ĠBarn": 8804,
      "ĠGene": 8805,
      "esy": 8806,
      "ĠAndy": 8807,
      "Ġattending": 8808,
      "ĠFig": 8809,
      "Ġmuscle": 8810,
      "Ġlogo": 8811,
      "Ġtissue": 8812,
      "fits": 8813,
      "Ġtestim": 8814,
      "ĠStudy": 8815,
      "ĠNCAA": 8816,
      "ĠTable": 8817,
      "Ġrepresentatives": 8818,
      "Ġreleases": 8819,
      "jection": 8820,
      "Ġweird": 8821,
      "Ġorient": 8822,
      "Ġexhaust": 8823,
      "Ġluxury": 8824,
      "ĠMoon": 8825,
      "Ġuncom": 8826,
      "ĠRegional": 8827,
      "Ġequivalent": 8828,
      "chers": 8829,
      "cludes": 8830,
      "Ġoverse": 8831,
      "ĠMayor": 8832,
      "Ġbone": 8833,
      "Ġspaces": 8834,
      "Ġouts": 8835,
      "Ġrecy": 8836,
      "Ġcrash": 8837,
      "zzle": 8838,
      "Ġenterprise": 8839,
      "ĠPublished": 8840,
      "Ġchips": 8841,
      "Ġarray": 8842,
      "Ġforecast": 8843,
      "Ġtalented": 8844,
      "nie": 8845,
      "Ġwestern": 8846,
      "Ġelectrical": 8847,
      "EG": 8848,
      "vas": 8849,
      "Ġphotographs": 8850,
      "Ġvent": 8851,
      "Ġspeaker": 8852,
      "ĠCorp": 8853,
      "ĠArticle": 8854,
      "organ": 8855,
      "ĠIndepend": 8856,
      "Ġstatistics": 8857,
      "ĠScient": 8858,
      "aret": 8859,
      "Ġscope": 8860,
      "Ġprincipal": 8861,
      "Ġgene": 8862,
      "Ġconsists": 8863,
      "Ġ1992": 8864,
      "Ġoccurs": 8865,
      "Ġzero": 8866,
      "ĠBand": 8867,
      "cut": 8868,
      "ĠMach": 8869,
      "mod": 8870,
      "ĠTell": 8871,
      "ogy": 8872,
      "ĠCommon": 8873,
      "Ġspokesman": 8874,
      "Ġparam": 8875,
      "ĠHad": 8876,
      "Ġinsight": 8877,
      "looking": 8878,
      "ĠCustomer": 8879,
      "Ġacquis": 8880,
      "Ġconsecutive": 8881,
      "Ġhealthcare": 8882,
      "ĠCoach": 8883,
      "Ġestimates": 8884,
      "ĠSure": 8885,
      "ĠMu": 8886,
      "Ġaccuracy": 8887,
      "Ġvirus": 8888,
      "Ġagenda": 8889,
      "ĠKids": 8890,
      "Ġtransmission": 8891,
      "Ġmaintained": 8892,
      "Ġgenuine": 8893,
      "ĠFL": 8894,
      "Ġprime": 8895,
      "Ġinteract": 8896,
      "HS": 8897,
      "je": 8898,
      "arents": 8899,
      "ĠTreat": 8900,
      "Ġmood": 8901,
      "ĠEth": 8902,
      "orse": 8903,
      "ĠJustin": 8904,
      "Ġchildhood": 8905,
      "Ġstake": 8906,
      "ĠBreak": 8907,
      "Ġcomedy": 8908,
      "Ġfactory": 8909,
      "Ġsubstantial": 8910,
      "One": 8911,
      "urities": 8912,
      "ĠRoss": 8913,
      "ĠComb": 8914,
      "Ġdistingu": 8915,
      "ĠAtlantic": 8916,
      "ĠâĢĻ": 8917,
      "Ġupset": 8918,
      "Ġmyth": 8919,
      "Ġpossession": 8920,
      "Ġdeclared": 8921,
      "ĠPortland": 8922,
      "Ġinfection": 8923,
      "ĠHT": 8924,
      "Ġsynt": 8925,
      "Ġrarely": 8926,
      "Ġsuffer": 8927,
      "Ġbathroom": 8928,
      "rets": 8929,
      "Ġdough": 8930,
      "Ġlift": 8931,
      "Ġblame": 8932,
      "Ġnobody": 8933,
      "Ġenjoying": 8934,
      "wear": 8935,
      "Ġcelebration": 8936,
      "Ġmeals": 8937,
      "ropri": 8938,
      "Ġdipl": 8939,
      "Ġroads": 8940,
      "ĠSony": 8941,
      "Ġlawyer": 8942,
      "Ġundert": 8943,
      "Ġinstant": 8944,
      "ĠLtd": 8945,
      "ĠCollection": 8946,
      "ĠContent": 8947,
      "ĠIslam": 8948,
      "Ġelectro": 8949,
      "Ġdiseases": 8950,
      "Ġbedroom": 8951,
      "ĠTel": 8952,
      "ĠPers": 8953,
      "ĠChange": 8954,
      "attan": 8955,
      "Ġpenalty": 8956,
      "aver": 8957,
      "ĠHP": 8958,
      "ĠMichel": 8959,
      "ĠPitts": 8960,
      "May": 8961,
      "ĠEngineering": 8962,
      "reement": 8963,
      "ĠClassic": 8964,
      "68": 8965,
      "Ġhal": 8966,
      "Ġcompat": 8967,
      "Ġstructures": 8968,
      "ja": 8969,
      "Ġstom": 8970,
      "ĠGil": 8971,
      "Ġfitness": 8972,
      "Ġfiction": 8973,
      "Ġjury": 8974,
      "Ġprogramme": 8975,
      "Ġobst": 8976,
      "mate": 8977,
      "Ġmanual": 8978,
      "friendly": 8979,
      "ĠCapital": 8980,
      "Ġmortgage": 8981,
      "week": 8982,
      "brid": 8983,
      "ĠJean": 8984,
      "ĠBruce": 8985,
      "eling": 8986,
      "69": 8987,
      "Ad": 8988,
      "ĠTR": 8989,
      "ĠProtection": 8990,
      "ĠExp": 8991,
      "ĠCleveland": 8992,
      "ĠToy": 8993,
      "Ġshr": 8994,
      "ĠBeaut": 8995,
      "after": 8996,
      "Ġtill": 8997,
      "Ġloving": 8998,
      "Ġentries": 8999,
      "fish": 9000,
      "ĠKingdom": 9001,
      "ĠAirport": 9002,
      "html": 9003,
      "rer": 9004,
      "Ġpreced": 9005,
      "Ġexplo": 9006,
      "Ġtemporary": 9007,
      "isd": 9008,
      "Ġdur": 9009,
      "Ġedited": 9010,
      "Ġbreaks": 9011,
      "Ġcommonly": 9012,
      "Ġimpressed": 9013,
      "ĠOfficer": 9014,
      "Ġpatent": 9015,
      "%,": 9016,
      "Ġorange": 9017,
      "ANT": 9018,
      "ipt": 9019,
      "ĠSEC": 9020,
      "Ġcredits": 9021,
      "Ġlifetime": 9022,
      "ĠSend": 9023,
      "Ġwanting": 9024,
      "town": 9025,
      "Ġstable": 9026,
      "Ġnose": 9027,
      "ĠAF": 9028,
      "Ġ41": 9029,
      "Ġcompliance": 9030,
      "aters": 9031,
      "Ġseeds": 9032,
      "ĠSciences": 9033,
      "Ġgang": 9034,
      "ĠBureau": 9035,
      "bered": 9036,
      "!!!!": 9037,
      "criptions": 9038,
      "ĠKennedy": 9039,
      "ĠSM": 9040,
      "Ġsignature": 9041,
      "Ġprospect": 9042,
      "KE": 9043,
      "isation": 9044,
      "elve": 9045,
      "Ġ1993": 9046,
      "mo": 9047,
      "ĠLic": 9048,
      "Ġneighb": 9049,
      "ĠConstitution": 9050,
      "ayer": 9051,
      "sex": 9052,
      "Ġfits": 9053,
      "igious": 9054,
      "Ġsinging": 9055,
      "Ġtoler": 9056,
      "leans": 9057,
      "uten": 9058,
      "market": 9059,
      "winning": 9060,
      "PL": 9061,
      "mble": 9062,
      "ĠURL": 9063,
      "Ġconscious": 9064,
      "core": 9065,
      "Ġdestroyed": 9066,
      "Ġtub": 9067,
      "ĠEN": 9068,
      "ĠConnecticut": 9069,
      "Ġkit": 9070,
      "ĠThink": 9071,
      "Ġvisits": 9072,
      "ĠArk": 9073,
      "Ġcombine": 9074,
      "ĠCNN": 9075,
      "called": 9076,
      "ĠPrince": 9077,
      "Ġutility": 9078,
      "ĠStadium": 9079,
      "ĠConvention": 9080,
      "Ġdifficulty": 9081,
      "Ġcrucial": 9082,
      "ĠWars": 9083,
      "Ġbarely": 9084,
      "ĠDick": 9085,
      "Ġlip": 9086,
      "Ġthy": 9087,
      "Ġdemands": 9088,
      "Ġstruggling": 9089,
      "Ġmaintaining": 9090,
      "olen": 9091,
      "sole": 9092,
      "Ġpeak": 9093,
      "Ġspell": 9094,
      "ĠDeath": 9095,
      "ippi": 9096,
      "Ġdivided": 9097,
      "Ġhardly": 9098,
      "Ġimmigr": 9099,
      "izon": 9100,
      "ĠGovernor": 9101,
      "Ġwalks": 9102,
      "Ġhanging": 9103,
      "ulpt": 9104,
      "oper": 9105,
      "ĠOx": 9106,
      "Ġ2014": 9107,
      "ĠChallen": 9108,
      "Ġconfront": 9109,
      "Ġ250": 9110,
      "Ġholidays": 9111,
      "bie": 9112,
      "lessly": 9113,
      "Ġrefund": 9114,
      "ĠInterest": 9115,
      "ĠEdward": 9116,
      "ĠPeace": 9117,
      "Ġcatalog": 9118,
      "ĠHills": 9119,
      "Ġhide": 9120,
      "Ġje": 9121,
      "Ġresulted": 9122,
      "Ġcolon": 9123,
      "Ġintegration": 9124,
      "dri": 9125,
      "Ġnaturally": 9126,
      "Ġsuck": 9127,
      "Ġcig": 9128,
      "ighters": 9129,
      "mat": 9130,
      "andal": 9131,
      "Ġanybody": 9132,
      "ĠTerms": 9133,
      "Ġenthusi": 9134,
      "Sp": 9135,
      "ĠDanny": 9136,
      "Ġexpanded": 9137,
      "At": 9138,
      "Ġwise": 9139,
      "dale": 9140,
      "rection": 9141,
      "Ġvibr": 9142,
      "Ġtries": 9143,
      "Ġreviewed": 9144,
      "Ġrespectively": 9145,
      "Ġpreparing": 9146,
      "Ġuniverse": 9147,
      "ĠOrleans": 9148,
      "ĠSubs": 9149,
      "Ġacquired": 9150,
      "Ġgate": 9151,
      "UC": 9152,
      "ĠTele": 9153,
      "ĠUSB": 9154,
      "Ġchecking": 9155,
      "Ġcircuit": 9156,
      "Ġdeficit": 9157,
      "ĠBridge": 9158,
      "Ġreporter": 9159,
      "Ġcomplicated": 9160,
      "ĠEarly": 9161,
      "Ġrapidly": 9162,
      "low": 9163,
      "quarters": 9164,
      "hire": 9165,
      "ĠChampions": 9166,
      "Ġwash": 9167,
      "Ġattach": 9168,
      "Ġsed": 9169,
      "Ġnic": 9170,
      "Ġoutcome": 9171,
      "Ġarmed": 9172,
      "roller": 9173,
      "Ġdishes": 9174,
      "ĠRepresent": 9175,
      "gie": 9176,
      "Ġgap": 9177,
      "kee": 9178,
      "Ġcompe": 9179,
      "verty": 9180,
      "Ġordinary": 9181,
      "ĠIron": 9182,
      "Ġalleg": 9183,
      "Ġfascin": 9184,
      "ĠVen": 9185,
      "Ġhighlights": 9186,
      "vals": 9187,
      "ĠMah": 9188,
      "ĠNavy": 9189,
      "ĠLeon": 9190,
      "Ġlibr": 9191,
      "ĠProfessional": 9192,
      "Ġgorgeous": 9193,
      "rav": 9194,
      "Ġpermit": 9195,
      "Ġstudied": 9196,
      "zing": 9197,
      "Ġdrove": 9198,
      "ĠUnivers": 9199,
      "rieved": 9200,
      "Ġcul": 9201,
      "Ġrequirement": 9202,
      "Ġexplanation": 9203,
      "una": 9204,
      "Ġrespective": 9205,
      "Ġloyal": 9206,
      "ĠFinal": 9207,
      "ĠStone": 9208,
      "Ġratio": 9209,
      "urches": 9210,
      "Ġsear": 9211,
      "Ġgrace": 9212,
      "Ġresort": 9213,
      "Ġminds": 9214,
      "Ġtargeted": 9215,
      "Ġpoverty": 9216,
      "Ġcaptured": 9217,
      "Ġvirtually": 9218,
      "ricts": 9219,
      "Ġsupporters": 9220,
      "61": 9221,
      "Ġproducers": 9222,
      "Ġsigning": 9223,
      "ĠMississ": 9224,
      "Ġ]": 9225,
      "ĠIndex": 9226,
      "Ġcircle": 9227,
      "enter": 9228,
      "ĠAve": 9229,
      "Ġdrinks": 9230,
      "ounding": 9231,
      "ibl": 9232,
      "acter": 9233,
      "Ġbless": 9234,
      "Ġlesson": 9235,
      "Ġfiber": 9236,
      "...]": 9237,
      "ĠAmend": 9238,
      "Ġcontribution": 9239,
      "Ġsuspend": 9240,
      "Ġcrimes": 9241,
      "Ġreceiver": 9242,
      "Ġprinciple": 9243,
      "94": 9244,
      "ĠGun": 9245,
      "ĠPartners": 9246,
      "Ġhors": 9247,
      "istent": 9248,
      "Ġlens": 9249,
      "ĠGary": 9250,
      "ĠJane": 9251,
      "Ġfounder": 9252,
      "Ġcommunicate": 9253,
      "ĠAffairs": 9254,
      "Ġfingers": 9255,
      "Ġauction": 9256,
      "ĠCS": 9257,
      "ĠEve": 9258,
      "udes": 9259,
      "ĠHarvard": 9260,
      "Ġgrounds": 9261,
      "Ġfilling": 9262,
      "ĠLaur": 9263,
      "Ġapproaches": 9264,
      "ulum": 9265,
      "arts": 9266,
      "don": 9267,
      "zed": 9268,
      "Ġtreatments": 9269,
      "Ġaccompan": 9270,
      "ĠClear": 9271,
      "Ġadj": 9272,
      "aware": 9273,
      "Ġcoat": 9274,
      "awa": 9275,
      "ĠHus": 9276,
      "Ġpacked": 9277,
      "Ġrecre": 9278,
      "pire": 9279,
      "Ġlobby": 9280,
      "Ġdeck": 9281,
      "Ġhopefully": 9282,
[...]
